/* Copyright Statement:
 *
 * This software/firmware and related documentation ("MediaTek Software") are
 * protected under relevant copyright laws. The information contained herein
 * is confidential and proprietary to MediaTek Inc. and/or its licensors.
 *
 * Without the prior written permission of MediaTek inc. and/or its licensors,
 * any reproduction, modification, use or disclosure of MediaTek Software,
 * and information contained herein, in whole or in part, shall be strictly prohibited.
 */
/* MediaTek Inc. (C) 2020. All rights reserved.
 *
 * BY OPENING THIS FILE, RECEIVER HEREBY UNEQUIVOCALLY ACKNOWLEDGES AND AGREES
 * THAT THE SOFTWARE/FIRMWARE AND ITS DOCUMENTATIONS ("MEDIATEK SOFTWARE")
 * RECEIVED FROM MEDIATEK AND/OR ITS REPRESENTATIVES ARE PROVIDED TO RECEIVER ON
 * AN "AS-IS" BASIS ONLY. MEDIATEK EXPRESSLY DISCLAIMS ANY AND ALL WARRANTIES,
 * EXPRESS OR IMPLIED, INCLUDING BUT NOT LIMITED TO THE IMPLIED WARRANTIES OF
 * MERCHANTABILITY, FITNESS FOR A PARTICULAR PURPOSE OR NONINFRINGEMENT.
 * NEITHER DOES MEDIATEK PROVIDE ANY WARRANTY WHATSOEVER WITH RESPECT TO THE
 * SOFTWARE OF ANY THIRD PARTY WHICH MAY BE USED BY, INCORPORATED IN, OR
 * SUPPLIED WITH THE MEDIATEK SOFTWARE, AND RECEIVER AGREES TO LOOK ONLY TO SUCH
 * THIRD PARTY FOR ANY WARRANTY CLAIM RELATING THERETO. RECEIVER EXPRESSLY ACKNOWLEDGES
 * THAT IT IS RECEIVER'S SOLE RESPONSIBILITY TO OBTAIN FROM ANY THIRD PARTY ALL PROPER LICENSES
 * CONTAINED IN MEDIATEK SOFTWARE. MEDIATEK SHALL ALSO NOT BE RESPONSIBLE FOR ANY MEDIATEK
 * SOFTWARE RELEASES MADE TO RECEIVER'S SPECIFICATION OR TO CONFORM TO A PARTICULAR
 * STANDARD OR OPEN FORUM. RECEIVER'S SOLE AND EXCLUSIVE REMEDY AND MEDIATEK'S ENTIRE AND
 * CUMULATIVE LIABILITY WITH RESPECT TO THE MEDIATEK SOFTWARE RELEASED HEREUNDER WILL BE,
 * AT MEDIATEK'S OPTION, TO REVISE OR REPLACE THE MEDIATEK SOFTWARE AT ISSUE,
 * OR REFUND ANY SOFTWARE LICENSE FEES OR SERVICE CHARGE PAID BY RECEIVER TO
 * MEDIATEK FOR SUCH MEDIATEK SOFTWARE AT ISSUE.
 *
 * The following software/firmware and/or related documentation ("MediaTek Software")
 * have been modified by MediaTek Inc. All revisions are subject to any receiver's
 * applicable license agreements with MediaTek Inc.
 */

#pragma once

static constexpr char kSraa4chPortraitModel[] = {
        0x1c, 0x00, 0x00, 0x00, 0x54, 0x46, 0x4c, 0x33, 0x00, 0x00, 0x12, 0x00, 0x1c, 0x00, 0x04,
        0x00, 0x08, 0x00, 0x0c, 0x00, 0x10, 0x00, 0x14, 0x00, 0x00, 0x00, 0x18, 0x00, 0x12, 0x00,
        0x00, 0x00, 0x03, 0x00, 0x00, 0x00, 0xb4, 0x21, 0x00, 0x00, 0x10, 0x00, 0x00, 0x00, 0x1c,
        0x00, 0x00, 0x00, 0x2c, 0x00, 0x00, 0x00, 0x0c, 0x00, 0x00, 0x00, 0x01, 0x00, 0x00, 0x00,
        0xe0, 0x01, 0x00, 0x00, 0x01, 0x00, 0x00, 0x00, 0xb4, 0x01, 0x00, 0x00, 0x0f, 0x00, 0x00,
        0x00, 0x54, 0x4f, 0x43, 0x4f, 0x20, 0x43, 0x6f, 0x6e, 0x76, 0x65, 0x72, 0x74, 0x65, 0x64,
        0x2e, 0x00, 0x25, 0x00, 0x00, 0x00, 0x88, 0x01, 0x00, 0x00, 0x7c, 0x01, 0x00, 0x00, 0x68,
        0x01, 0x00, 0x00, 0x54, 0x01, 0x00, 0x00, 0x48, 0x01, 0x00, 0x00, 0x3c, 0x01, 0x00, 0x00,
        0x30, 0x01, 0x00, 0x00, 0x24, 0x01, 0x00, 0x00, 0x18, 0x01, 0x00, 0x00, 0x0c, 0x01, 0x00,
        0x00, 0x00, 0x01, 0x00, 0x00, 0xf4, 0x00, 0x00, 0x00, 0xe8, 0x00, 0x00, 0x00, 0xdc, 0x00,
        0x00, 0x00, 0xd0, 0x00, 0x00, 0x00, 0xc4, 0x00, 0x00, 0x00, 0xb8, 0x00, 0x00, 0x00, 0xb0,
        0x00, 0x00, 0x00, 0xa8, 0x00, 0x00, 0x00, 0xa0, 0x00, 0x00, 0x00, 0x98, 0x00, 0x00, 0x00,
        0x8c, 0x00, 0x00, 0x00, 0x80, 0x00, 0x00, 0x00, 0x74, 0x00, 0x00, 0x00, 0x6c, 0x00, 0x00,
        0x00, 0x60, 0x00, 0x00, 0x00, 0x58, 0x00, 0x00, 0x00, 0x50, 0x00, 0x00, 0x00, 0x48, 0x00,
        0x00, 0x00, 0x40, 0x00, 0x00, 0x00, 0x38, 0x00, 0x00, 0x00, 0x30, 0x00, 0x00, 0x00, 0x28,
        0x00, 0x00, 0x00, 0x20, 0x00, 0x00, 0x00, 0x18, 0x00, 0x00, 0x00, 0x10, 0x00, 0x00, 0x00,
        0x04, 0x00, 0x00, 0x00, 0x1a, 0xff, 0xff, 0xff, 0xf4, 0x00, 0x00, 0x00, 0xd4, 0xde, 0xff,
        0xff, 0xd8, 0xde, 0xff, 0xff, 0xdc, 0xde, 0xff, 0xff, 0xe0, 0xde, 0xff, 0xff, 0xe4, 0xde,
        0xff, 0xff, 0xe8, 0xde, 0xff, 0xff, 0xec, 0xde, 0xff, 0xff, 0xf0, 0xde, 0xff, 0xff, 0xf4,
        0xde, 0xff, 0xff, 0xf8, 0xde, 0xff, 0xff, 0x4a, 0xff, 0xff, 0xff, 0x7c, 0x06, 0x00, 0x00,
        0x04, 0xdf, 0xff, 0xff, 0x56, 0xff, 0xff, 0xff, 0x2c, 0x07, 0x00, 0x00, 0x5e, 0xff, 0xff,
        0xff, 0x74, 0x07, 0x00, 0x00, 0x66, 0xff, 0xff, 0xff, 0xc0, 0x07, 0x00, 0x00, 0x20, 0xdf,
        0xff, 0xff, 0x24, 0xdf, 0xff, 0xff, 0x28, 0xdf, 0xff, 0xff, 0x2c, 0xdf, 0xff, 0xff, 0x7e,
        0xff, 0xff, 0xff, 0x10, 0x0a, 0x00, 0x00, 0x86, 0xff, 0xff, 0xff, 0x30, 0x0c, 0x00, 0x00,
        0x8e, 0xff, 0xff, 0xff, 0x50, 0x0e, 0x00, 0x00, 0x96, 0xff, 0xff, 0xff, 0x70, 0x10, 0x00,
        0x00, 0x9e, 0xff, 0xff, 0xff, 0x8c, 0x12, 0x00, 0x00, 0xa6, 0xff, 0xff, 0xff, 0x08, 0x14,
        0x00, 0x00, 0xae, 0xff, 0xff, 0xff, 0xa4, 0x14, 0x00, 0x00, 0xb6, 0xff, 0xff, 0xff, 0x84,
        0x16, 0x00, 0x00, 0xbe, 0xff, 0xff, 0xff, 0xe4, 0x16, 0x00, 0x00, 0xc6, 0xff, 0xff, 0xff,
        0x44, 0x17, 0x00, 0x00, 0xce, 0xff, 0xff, 0xff, 0xa4, 0x17, 0x00, 0x00, 0xd6, 0xff, 0xff,
        0xff, 0x08, 0x18, 0x00, 0x00, 0xde, 0xff, 0xff, 0xff, 0xa4, 0x18, 0x00, 0x00, 0xf6, 0xff,
        0xff, 0xff, 0x84, 0x1a, 0x00, 0x00, 0x00, 0x00, 0x06, 0x00, 0x0a, 0x00, 0x04, 0x00, 0x06,
        0x00, 0x00, 0x00, 0x24, 0x1b, 0x00, 0x00, 0x00, 0x00, 0x06, 0x00, 0x08, 0x00, 0x04, 0x00,
        0x06, 0x00, 0x00, 0x00, 0xf8, 0x1b, 0x00, 0x00, 0xc0, 0xdf, 0xff, 0xff, 0x05, 0x00, 0x00,
        0x00, 0x31, 0x2e, 0x36, 0x2e, 0x30, 0x00, 0x00, 0x00, 0x34, 0xe0, 0xff, 0xff, 0x08, 0x00,
        0x00, 0x00, 0x24, 0x00, 0x00, 0x00, 0x13, 0x00, 0x00, 0x00, 0x6d, 0x69, 0x6e, 0x5f, 0x72,
        0x75, 0x6e, 0x74, 0x69, 0x6d, 0x65, 0x5f, 0x76, 0x65, 0x72, 0x73, 0x69, 0x6f, 0x6e, 0x00,
        0x68, 0xe5, 0xff, 0xff, 0x20, 0x00, 0x00, 0x00, 0x14, 0x00, 0x00, 0x00, 0x08, 0x00, 0x00,
        0x00, 0xc0, 0x1b, 0x00, 0x00, 0x01, 0x00, 0x00, 0x00, 0x0f, 0x00, 0x00, 0x00, 0x01, 0x00,
        0x00, 0x00, 0x14, 0x00, 0x00, 0x00, 0x23, 0x00, 0x00, 0x00, 0x4c, 0x04, 0x00, 0x00, 0xd8,
        0x03, 0x00, 0x00, 0xac, 0x07, 0x00, 0x00, 0x74, 0x15, 0x00, 0x00, 0xd8, 0x15, 0x00, 0x00,
        0x3c, 0x16, 0x00, 0x00, 0xa0, 0x16, 0x00, 0x00, 0x04, 0x17, 0x00, 0x00, 0x90, 0x19, 0x00,
        0x00, 0x10, 0x1b, 0x00, 0x00, 0xcc, 0x12, 0x00, 0x00, 0x18, 0x07, 0x00, 0x00, 0x64, 0x01,
        0x00, 0x00, 0x38, 0x03, 0x00, 0x00, 0xc4, 0x02, 0x00, 0x00, 0xc8, 0x00, 0x00, 0x00, 0x80,
        0x04, 0x00, 0x00, 0xe0, 0x07, 0x00, 0x00, 0x44, 0x02, 0x00, 0x00, 0x20, 0x05, 0x00, 0x00,
        0x84, 0x06, 0x00, 0x00, 0xb0, 0x01, 0x00, 0x00, 0xd4, 0x04, 0x00, 0x00, 0x30, 0x00, 0x00,
        0x00, 0xd0, 0x05, 0x00, 0x00, 0x78, 0x05, 0x00, 0x00, 0x18, 0x06, 0x00, 0x00, 0x28, 0x08,
        0x00, 0x00, 0x4c, 0x0a, 0x00, 0x00, 0x70, 0x0c, 0x00, 0x00, 0x94, 0x0e, 0x00, 0x00, 0xb8,
        0x10, 0x00, 0x00, 0xdc, 0x12, 0x00, 0x00, 0x08, 0x17, 0x00, 0x00, 0x90, 0x19, 0x00, 0x00,
        0x66, 0xe5, 0xff, 0xff, 0x00, 0x00, 0x00, 0x03, 0x10, 0x00, 0x00, 0x00, 0x23, 0x00, 0x00,
        0x00, 0x1c, 0x00, 0x00, 0x00, 0x2c, 0x00, 0x00, 0x00, 0x04, 0x00, 0x00, 0x00, 0x01, 0x00,
        0x00, 0x00, 0x00, 0x05, 0x00, 0x00, 0xd0, 0x02, 0x00, 0x00, 0x03, 0x00, 0x00, 0x00, 0x0d,
        0x00, 0x00, 0x00, 0x73, 0x74, 0x72, 0x69, 0x64, 0x65, 0x64, 0x5f, 0x73, 0x6c, 0x69, 0x63,
        0x65, 0x00, 0x00, 0x00, 0x5c, 0xe6, 0xff, 0xff, 0x2c, 0x00, 0x00, 0x00, 0x20, 0x00, 0x00,
        0x00, 0x14, 0x00, 0x00, 0x00, 0x04, 0x00, 0x00, 0x00, 0x01, 0x00, 0x00, 0x00, 0x00, 0x00,
        0x00, 0x00, 0x00, 0x00, 0x00, 0x00, 0x01, 0x00, 0x00, 0x00, 0x81, 0x80, 0x80, 0x3b, 0x01,
        0x00, 0x00, 0x00, 0x00, 0x00, 0x80, 0x3f, 0x01, 0x00, 0x00, 0x00, 0x00, 0x00, 0x00, 0x00,
        0xde, 0xe5, 0xff, 0xff, 0x00, 0x00, 0x00, 0x03, 0x10, 0x00, 0x00, 0x00, 0x22, 0x00, 0x00,
        0x00, 0x1c, 0x00, 0x00, 0x00, 0x44, 0x00, 0x00, 0x00, 0x04, 0x00, 0x00, 0x00, 0x01, 0x00,
        0x00, 0x00, 0x80, 0x07, 0x00, 0x00, 0x38, 0x04, 0x00, 0x00, 0x03, 0x00, 0x00, 0x00, 0x24,
        0x00, 0x00, 0x00, 0x61, 0x63, 0x74, 0x5f, 0x71, 0x75, 0x61, 0x6e, 0x74, 0x5f, 0x31, 0x30,
        0x2f, 0x46, 0x61, 0x6b, 0x65, 0x51, 0x75, 0x61, 0x6e, 0x74, 0x57, 0x69, 0x74, 0x68, 0x4d,
        0x69, 0x6e, 0x4d, 0x61, 0x78, 0x56, 0x61, 0x72, 0x73, 0x00, 0x00, 0x00, 0x00, 0xec, 0xe6,
        0xff, 0xff, 0x2c, 0x00, 0x00, 0x00, 0x20, 0x00, 0x00, 0x00, 0x14, 0x00, 0x00, 0x00, 0x04,
        0x00, 0x00, 0x00, 0x01, 0x00, 0x00, 0x00, 0x00, 0x00, 0x00, 0x00, 0x00, 0x00, 0x00, 0x00,
        0x01, 0x00, 0x00, 0x00, 0x81, 0x80, 0x80, 0x3b, 0x01, 0x00, 0x00, 0x00, 0x00, 0x00, 0x80,
        0x3f, 0x01, 0x00, 0x00, 0x00, 0x00, 0x00, 0x00, 0x00, 0x6e, 0xe6, 0xff, 0xff, 0x00, 0x00,
        0x00, 0x03, 0x10, 0x00, 0x00, 0x00, 0x21, 0x00, 0x00, 0x00, 0x1c, 0x00, 0x00, 0x00, 0x24,
        0x00, 0x00, 0x00, 0x04, 0x00, 0x00, 0x00, 0x01, 0x00, 0x00, 0x00, 0x00, 0x05, 0x00, 0x00,
        0xd0, 0x02, 0x00, 0x00, 0x04, 0x00, 0x00, 0x00, 0x06, 0x00, 0x00, 0x00, 0x52, 0x65, 0x6c,
        0x75, 0x5f, 0x31, 0x00, 0x00, 0x5c, 0xe7, 0xff, 0xff, 0x2c, 0x00, 0x00, 0x00, 0x20, 0x00,
        0x00, 0x00, 0x14, 0x00, 0x00, 0x00, 0x04, 0x00, 0x00, 0x00, 0x01, 0x00, 0x00, 0x00, 0x00,
        0x00, 0x00, 0x00, 0x00, 0x00, 0x00, 0x00, 0x01, 0x00, 0x00, 0x00, 0x8e, 0xe8, 0xf0, 0x3c,
        0x01, 0x00, 0x00, 0x00, 0xa5, 0xf7, 0xef, 0x40, 0x01, 0x00, 0x00, 0x00, 0x00, 0x00, 0x00,
        0x00, 0xde, 0xe6, 0xff, 0xff, 0x00, 0x00, 0x00, 0x03, 0x10, 0x00, 0x00, 0x00, 0x20, 0x00,
        0x00, 0x00, 0x1c, 0x00, 0x00, 0x00, 0x3c, 0x00, 0x00, 0x00, 0x04, 0x00, 0x00, 0x00, 0x01,
        0x00, 0x00, 0x00, 0x80, 0x07, 0x00, 0x00, 0x38, 0x04, 0x00, 0x00, 0x04, 0x00, 0x00, 0x00,
        0x1c, 0x00, 0x00, 0x00, 0x72, 0x65, 0x73, 0x69, 0x7a, 0x65, 0x2f, 0x52, 0x65, 0x73, 0x69,
        0x7a, 0x65, 0x4e, 0x65, 0x61, 0x72, 0x65, 0x73, 0x74, 0x4e, 0x65, 0x69, 0x67, 0x68, 0x62,
        0x6f, 0x72, 0x00, 0x00, 0x00, 0x00, 0xe4, 0xe7, 0xff, 0xff, 0x2c, 0x00, 0x00, 0x00, 0x20,
        0x00, 0x00, 0x00, 0x14, 0x00, 0x00, 0x00, 0x04, 0x00, 0x00, 0x00, 0x01, 0x00, 0x00, 0x00,
        0x4d, 0x00, 0x00, 0x00, 0x00, 0x00, 0x00, 0x00, 0x01, 0x00, 0x00, 0x00, 0x22, 0x76, 0x5b,
        0x3d, 0x01, 0x00, 0x00, 0x00, 0x24, 0x98, 0x18, 0x41, 0x01, 0x00, 0x00, 0x00, 0x11, 0x05,
        0x84, 0xc0, 0x66, 0xe7, 0xff, 0xff, 0x00, 0x00, 0x00, 0x03, 0x10, 0x00, 0x00, 0x00, 0x1f,
        0x00, 0x00, 0x00, 0x1c, 0x00, 0x00, 0x00, 0x24, 0x00, 0x00, 0x00, 0x04, 0x00, 0x00, 0x00,
        0x01, 0x00, 0x00, 0x00, 0x00, 0x05, 0x00, 0x00, 0xd0, 0x02, 0x00, 0x00, 0x04, 0x00, 0x00,
        0x00, 0x06, 0x00, 0x00, 0x00, 0x61, 0x64, 0x64, 0x5f, 0x31, 0x30, 0x00, 0x00, 0x54, 0xe8,
        0xff, 0xff, 0x2c, 0x00, 0x00, 0x00, 0x20, 0x00, 0x00, 0x00, 0x14, 0x00, 0x00, 0x00, 0x04,
        0x00, 0x00, 0x00, 0x01, 0x00, 0x00, 0x00, 0x4d, 0x00, 0x00, 0x00, 0x00, 0x00, 0x00, 0x00,
        0x01, 0x00, 0x00, 0x00, 0x22, 0x76, 0x5b, 0x3d, 0x01, 0x00, 0x00, 0x00, 0x24, 0x98, 0x18,
        0x41, 0x01, 0x00, 0x00, 0x00, 0x11, 0x05, 0x84, 0xc0, 0xd6, 0xe7, 0xff, 0xff, 0x00, 0x00,
        0x00, 0x03, 0x10, 0x00, 0x00, 0x00, 0x1e, 0x00, 0x00, 0x00, 0x1c, 0x00, 0x00, 0x00, 0x24,
        0x00, 0x00, 0x00, 0x04, 0x00, 0x00, 0x00, 0x01, 0x00, 0x00, 0x00, 0x00, 0x05, 0x00, 0x00,
        0xd0, 0x02, 0x00, 0x00, 0x04, 0x00, 0x00, 0x00, 0x06, 0x00, 0x00, 0x00, 0x52, 0x65, 0x6c,
        0x75, 0x5f, 0x33, 0x00, 0x00, 0xc4, 0xe8, 0xff, 0xff, 0x2c, 0x00, 0x00, 0x00, 0x20, 0x00,
        0x00, 0x00, 0x14, 0x00, 0x00, 0x00, 0x04, 0x00, 0x00, 0x00, 0x01, 0x00, 0x00, 0x00, 0x00,
        0x00, 0x00, 0x00, 0x00, 0x00, 0x00, 0x00, 0x01, 0x00, 0x00, 0x00, 0xb4, 0x49, 0x77, 0x3c,
        0x01, 0x00, 0x00, 0x00, 0x6a, 0x52, 0x76, 0x40, 0x01, 0x00, 0x00, 0x00, 0x00, 0x00, 0x00,
        0x00, 0x46, 0xe8, 0xff, 0xff, 0x00, 0x00, 0x00, 0x03, 0x10, 0x00, 0x00, 0x00, 0x1d, 0x00,
        0x00, 0x00, 0x1c, 0x00, 0x00, 0x00, 0x24, 0x00, 0x00, 0x00, 0x04, 0x00, 0x00, 0x00, 0x01,
        0x00, 0x00, 0x00, 0x00, 0x05, 0x00, 0x00, 0xd0, 0x02, 0x00, 0x00, 0x04, 0x00, 0x00, 0x00,
        0x06, 0x00, 0x00, 0x00, 0x52, 0x65, 0x6c, 0x75, 0x5f, 0x32, 0x00, 0x00, 0x34, 0xe9, 0xff,
        0xff, 0x2c, 0x00, 0x00, 0x00, 0x20, 0x00, 0x00, 0x00, 0x14, 0x00, 0x00, 0x00, 0x04, 0x00,
        0x00, 0x00, 0x01, 0x00, 0x00, 0x00, 0x00, 0x00, 0x00, 0x00, 0x00, 0x00, 0x00, 0x00, 0x01,
        0x00, 0x00, 0x00, 0x03, 0x76, 0x63, 0x3d, 0x01, 0x00, 0x00, 0x00, 0x8d, 0x92, 0x62, 0x41,
        0x01, 0x00, 0x00, 0x00, 0x00, 0x00, 0x00, 0x00, 0xb6, 0xe8, 0xff, 0xff, 0x00, 0x00, 0x00,
        0x03, 0x10, 0x00, 0x00, 0x00, 0x1c, 0x00, 0x00, 0x00, 0x1c, 0x00, 0x00, 0x00, 0x24, 0x00,
        0x00, 0x00, 0x04, 0x00, 0x00, 0x00, 0x01, 0x00, 0x00, 0x00, 0x00, 0x05, 0x00, 0x00, 0xd0,
        0x02, 0x00, 0x00, 0x04, 0x00, 0x00, 0x00, 0x05, 0x00, 0x00, 0x00, 0x41, 0x64, 0x64, 0x5f,
        0x35, 0x00, 0x00, 0x00, 0xa4, 0xe9, 0xff, 0xff, 0x2c, 0x00, 0x00, 0x00, 0x20, 0x00, 0x00,
        0x00, 0x14, 0x00, 0x00, 0x00, 0x04, 0x00, 0x00, 0x00, 0x01, 0x00, 0x00, 0x00, 0x66, 0x00,
        0x00, 0x00, 0x00, 0x00, 0x00, 0x00, 0x01, 0x00, 0x00, 0x00, 0xa8, 0xd3, 0x29, 0x3d, 0x01,
        0x00, 0x00, 0x00, 0xff, 0xfe, 0xca, 0x40, 0x01, 0x00, 0x00, 0x00, 0xaa, 0x54, 0x87, 0xc0,
        0x26, 0xe9, 0xff, 0xff, 0x00, 0x00, 0x00, 0x03, 0x10, 0x00, 0x00, 0x00, 0x1b, 0x00, 0x00,
        0x00, 0x1c, 0x00, 0x00, 0x00, 0x24, 0x00, 0x00, 0x00, 0x04, 0x00, 0x00, 0x00, 0x01, 0x00,
        0x00, 0x00, 0x00, 0x05, 0x00, 0x00, 0xd0, 0x02, 0x00, 0x00, 0x04, 0x00, 0x00, 0x00, 0x05,
        0x00, 0x00, 0x00, 0x41, 0x64, 0x64, 0x5f, 0x33, 0x00, 0x00, 0x00, 0x14, 0xea, 0xff, 0xff,
        0x30, 0x00, 0x00, 0x00, 0x24, 0x00, 0x00, 0x00, 0x18, 0x00, 0x00, 0x00, 0x04, 0x00, 0x00,
        0x00, 0x01, 0x00, 0x00, 0x00, 0x96, 0x00, 0x00, 0x00, 0x00, 0x00, 0x00, 0x00, 0x00, 0x00,
        0x00, 0x00, 0x01, 0x00, 0x00, 0x00, 0xe2, 0x0e, 0xf2, 0x3c, 0x01, 0x00, 0x00, 0x00, 0x36,
        0x90, 0x46, 0x40, 0x01, 0x00, 0x00, 0x00, 0xb9, 0xd4, 0x8d, 0xc0, 0x9a, 0xe9, 0xff, 0xff,
        0x00, 0x00, 0x00, 0x03, 0x10, 0x00, 0x00, 0x00, 0x1a, 0x00, 0x00, 0x00, 0x1c, 0x00, 0x00,
        0x00, 0x20, 0x00, 0x00, 0x00, 0x04, 0x00, 0x00, 0x00, 0x01, 0x00, 0x00, 0x00, 0x00, 0x05,
        0x00, 0x00, 0xd0, 0x02, 0x00, 0x00, 0x04, 0x00, 0x00, 0x00, 0x03, 0x00, 0x00, 0x00, 0x61,
        0x64, 0x64, 0x00, 0x84, 0xea, 0xff, 0xff, 0x2c, 0x00, 0x00, 0x00, 0x20, 0x00, 0x00, 0x00,
        0x14, 0x00, 0x00, 0x00, 0x04, 0x00, 0x00, 0x00, 0x01, 0x00, 0x00, 0x00, 0x7b, 0x00, 0x00,
        0x00, 0x00, 0x00, 0x00, 0x00, 0x01, 0x00, 0x00, 0x00, 0x97, 0xee, 0xb9, 0x3c, 0x01, 0x00,
        0x00, 0x00, 0x0b, 0xbe, 0x3f, 0x40, 0x01, 0x00, 0x00, 0x00, 0x45, 0xab, 0x32, 0xc0, 0x06,
        0xea, 0xff, 0xff, 0x00, 0x00, 0x00, 0x02, 0x10, 0x00, 0x00, 0x00, 0x19, 0x00, 0x00, 0x00,
        0x10, 0x00, 0x00, 0x00, 0x1c, 0x00, 0x00, 0x00, 0x01, 0x00, 0x00, 0x00, 0x02, 0x00, 0x00,
        0x00, 0x0b, 0x00, 0x00, 0x00, 0x72, 0x65, 0x73, 0x69, 0x7a, 0x65, 0x2f, 0x73, 0x69, 0x7a,
        0x65, 0x00, 0x78, 0xe5, 0xff, 0xff, 0x08, 0x00, 0x00, 0x00, 0x80, 0x07, 0x00, 0x00, 0x38,
        0x04, 0x00, 0x00, 0x46, 0xea, 0xff, 0xff, 0x00, 0x00, 0x00, 0x03, 0x10, 0x00, 0x00, 0x00,
        0x18, 0x00, 0x00, 0x00, 0x1c, 0x00, 0x00, 0x00, 0x24, 0x00, 0x00, 0x00, 0x04, 0x00, 0x00,
        0x00, 0x01, 0x00, 0x00, 0x00, 0x00, 0x05, 0x00, 0x00, 0xd0, 0x02, 0x00, 0x00, 0x04, 0x00,
        0x00, 0x00, 0x05, 0x00, 0x00, 0x00, 0x61, 0x64, 0x64, 0x5f, 0x38, 0x00, 0x00, 0x00, 0x34,
        0xeb, 0xff, 0xff, 0x2c, 0x00, 0x00, 0x00, 0x20, 0x00, 0x00, 0x00, 0x14, 0x00, 0x00, 0x00,
        0x04, 0x00, 0x00, 0x00, 0x01, 0x00, 0x00, 0x00, 0x7a, 0x00, 0x00, 0x00, 0x00, 0x00, 0x00,
        0x00, 0x01, 0x00, 0x00, 0x00, 0x98, 0x98, 0x78, 0x3c, 0x01, 0x00, 0x00, 0x00, 0x47, 0x27,
        0x01, 0x40, 0x01, 0x00, 0x00, 0x00, 0x71, 0xf1, 0xec, 0xbf, 0xb6, 0xea, 0xff, 0xff, 0x00,
        0x00, 0x00, 0x02, 0x10, 0x00, 0x00, 0x00, 0x17, 0x00, 0x00, 0x00, 0x10, 0x00, 0x00, 0x00,
        0x28, 0x00, 0x00, 0x00, 0x01, 0x00, 0x00, 0x00, 0x04, 0x00, 0x00, 0x00, 0x15, 0x00, 0x00,
        0x00, 0x73, 0x74, 0x72, 0x69, 0x64, 0x65, 0x64, 0x5f, 0x73, 0x6c, 0x69, 0x63, 0x65, 0x2f,
        0x73, 0x74, 0x61, 0x63, 0x6b, 0x5f, 0x31, 0x00, 0x00, 0x00, 0x34, 0xe6, 0xff, 0xff, 0x10,
        0x00, 0x00, 0x00, 0x00, 0x00, 0x00, 0x00, 0x00, 0x00, 0x00, 0x00, 0x00, 0x00, 0x00, 0x00,
        0x03, 0x00, 0x00, 0x00, 0x0a, 0xeb, 0xff, 0xff, 0x00, 0x00, 0x00, 0x02, 0x10, 0x00, 0x00,
        0x00, 0x16, 0x00, 0x00, 0x00, 0x10, 0x00, 0x00, 0x00, 0x24, 0x00, 0x00, 0x00, 0x01, 0x00,
        0x00, 0x00, 0x04, 0x00, 0x00, 0x00, 0x13, 0x00, 0x00, 0x00, 0x73, 0x74, 0x72, 0x69, 0x64,
        0x65, 0x64, 0x5f, 0x73, 0x6c, 0x69, 0x63, 0x65, 0x2f, 0x73, 0x74, 0x61, 0x63, 0x6b, 0x00,
        0x84, 0xe6, 0xff, 0xff, 0x10, 0x00, 0x00, 0x00, 0x00, 0x00, 0x00, 0x00, 0x00, 0x00, 0x00,
        0x00, 0x00, 0x00, 0x00, 0x00, 0x00, 0x00, 0x00, 0x00, 0x5a, 0xeb, 0xff, 0xff, 0x00, 0x00,
        0x00, 0x02, 0x10, 0x00, 0x00, 0x00, 0x15, 0x00, 0x00, 0x00, 0x10, 0x00, 0x00, 0x00, 0x28,
        0x00, 0x00, 0x00, 0x01, 0x00, 0x00, 0x00, 0x04, 0x00, 0x00, 0x00, 0x15, 0x00, 0x00, 0x00,
        0x73, 0x74, 0x72, 0x69, 0x64, 0x65, 0x64, 0x5f, 0x73, 0x6c, 0x69, 0x63, 0x65, 0x2f, 0x73,
        0x74, 0x61, 0x63, 0x6b, 0x5f, 0x32, 0x00, 0x00, 0x00, 0xd8, 0xe6, 0xff, 0xff, 0x10, 0x00,
        0x00, 0x00, 0x01, 0x00, 0x00, 0x00, 0x01, 0x00, 0x00, 0x00, 0x01, 0x00, 0x00, 0x00, 0x01,
        0x00, 0x00, 0x00, 0xae, 0xeb, 0xff, 0xff, 0x00, 0x00, 0x00, 0x03, 0x10, 0x00, 0x00, 0x00,
        0x14, 0x00, 0x00, 0x00, 0x1c, 0x00, 0x00, 0x00, 0x24, 0x00, 0x00, 0x00, 0x04, 0x00, 0x00,
        0x00, 0x01, 0x00, 0x00, 0x00, 0x00, 0x05, 0x00, 0x00, 0xd0, 0x02, 0x00, 0x00, 0x04, 0x00,
        0x00, 0x00, 0x06, 0x00, 0x00, 0x00, 0x69, 0x6d, 0x61, 0x67, 0x65, 0x73, 0x00, 0x00, 0x9c,
        0xec, 0xff, 0xff, 0x2c, 0x00, 0x00, 0x00, 0x20, 0x00, 0x00, 0x00, 0x14, 0x00, 0x00, 0x00,
        0x04, 0x00, 0x00, 0x00, 0x01, 0x00, 0x00, 0x00, 0x00, 0x00, 0x00, 0x00, 0x00, 0x00, 0x00,
        0x00, 0x01, 0x00, 0x00, 0x00, 0x81, 0x80, 0x80, 0x3b, 0x01, 0x00, 0x00, 0x00, 0x00, 0x00,
        0x80, 0x3f, 0x01, 0x00, 0x00, 0x00, 0x00, 0x00, 0x00, 0x00, 0x1e, 0xec, 0xff, 0xff, 0x00,
        0x00, 0x00, 0x03, 0x10, 0x00, 0x00, 0x00, 0x13, 0x00, 0x00, 0x00, 0x1c, 0x00, 0x00, 0x00,
        0x24, 0x00, 0x00, 0x00, 0x04, 0x00, 0x00, 0x00, 0x01, 0x00, 0x00, 0x00, 0x00, 0x05, 0x00,
        0x00, 0xd0, 0x02, 0x00, 0x00, 0x04, 0x00, 0x00, 0x00, 0x04, 0x00, 0x00, 0x00, 0x52, 0x65,
        0x6c, 0x75, 0x00, 0x00, 0x00, 0x00, 0x0c, 0xed, 0xff, 0xff, 0x2c, 0x00, 0x00, 0x00, 0x20,
        0x00, 0x00, 0x00, 0x14, 0x00, 0x00, 0x00, 0x04, 0x00, 0x00, 0x00, 0x01, 0x00, 0x00, 0x00,
        0x00, 0x00, 0x00, 0x00, 0x00, 0x00, 0x00, 0x00, 0x01, 0x00, 0x00, 0x00, 0x62, 0x0c, 0x4d,
        0x3c, 0x01, 0x00, 0x00, 0x00, 0x56, 0x3f, 0x4c, 0x40, 0x01, 0x00, 0x00, 0x00, 0x00, 0x00,
        0x00, 0x00, 0x8e, 0xec, 0xff, 0xff, 0x00, 0x00, 0x00, 0x03, 0x10, 0x00, 0x00, 0x00, 0x12,
        0x00, 0x00, 0x00, 0x1c, 0x00, 0x00, 0x00, 0x24, 0x00, 0x00, 0x00, 0x04, 0x00, 0x00, 0x00,
        0x01, 0x00, 0x00, 0x00, 0x00, 0x05, 0x00, 0x00, 0xd0, 0x02, 0x00, 0x00, 0x04, 0x00, 0x00,
        0x00, 0x05, 0x00, 0x00, 0x00, 0x41, 0x64, 0x64, 0x5f, 0x37, 0x00, 0x00, 0x00, 0x7c, 0xed,
        0xff, 0xff, 0x2c, 0x00, 0x00, 0x00, 0x20, 0x00, 0x00, 0x00, 0x14, 0x00, 0x00, 0x00, 0x04,
        0x00, 0x00, 0x00, 0x01, 0x00, 0x00, 0x00, 0x32, 0x00, 0x00, 0x00, 0x00, 0x00, 0x00, 0x00,
        0x01, 0x00, 0x00, 0x00, 0xba, 0x35, 0xa6, 0x3d, 0x01, 0x00, 0x00, 0x00, 0x06, 0x19, 0x85,
        0x41, 0x01, 0x00, 0x00, 0x00, 0xf9, 0xd9, 0x81, 0xc0, 0xfe, 0xec, 0xff, 0xff, 0x00, 0x00,
        0x00, 0x03, 0x10, 0x00, 0x00, 0x00, 0x11, 0x00, 0x00, 0x00, 0x1c, 0x00, 0x00, 0x00, 0x24,
        0x00, 0x00, 0x00, 0x04, 0x00, 0x00, 0x00, 0x01, 0x00, 0x00, 0x00, 0x00, 0x05, 0x00, 0x00,
        0xd0, 0x02, 0x00, 0x00, 0x04, 0x00, 0x00, 0x00, 0x05, 0x00, 0x00, 0x00, 0x61, 0x64, 0x64,
        0x5f, 0x31, 0x00, 0x00, 0x00, 0xec, 0xed, 0xff, 0xff, 0x2c, 0x00, 0x00, 0x00, 0x20, 0x00,
        0x00, 0x00, 0x14, 0x00, 0x00, 0x00, 0x04, 0x00, 0x00, 0x00, 0x01, 0x00, 0x00, 0x00, 0x95,
        0x00, 0x00, 0x00, 0x00, 0x00, 0x00, 0x00, 0x01, 0x00, 0x00, 0x00, 0x4d, 0xd9, 0xfe, 0x3c,
        0x01, 0x00, 0x00, 0x00, 0xf4, 0x0b, 0x53, 0x40, 0x01, 0x00, 0x00, 0x00, 0x7a, 0x54, 0x94,
        0xc0, 0x6e, 0xed, 0xff, 0xff, 0x00, 0x00, 0x00, 0x03, 0x10, 0x00, 0x00, 0x00, 0x10, 0x00,
        0x00, 0x00, 0x1c, 0x00, 0x00, 0x00, 0x44, 0x00, 0x00, 0x00, 0x04, 0x00, 0x00, 0x00, 0x04,
        0x00, 0x00, 0x00, 0x05, 0x00, 0x00, 0x00, 0x05, 0x00, 0x00, 0x00, 0x04, 0x00, 0x00, 0x00,
        0x24, 0x00, 0x00, 0x00, 0x77, 0x65, 0x69, 0x67, 0x68, 0x74, 0x5f, 0x71, 0x75, 0x61, 0x6e,
        0x74, 0x2f, 0x46, 0x61, 0x6b, 0x65, 0x51, 0x75, 0x61, 0x6e, 0x74, 0x57, 0x69, 0x74, 0x68,
        0x4d, 0x69, 0x6e, 0x4d, 0x61, 0x78, 0x56, 0x61, 0x72, 0x73, 0x00, 0x00, 0x00, 0x00, 0x7c,
        0xee, 0xff, 0xff, 0x30, 0x00, 0x00, 0x00, 0x24, 0x00, 0x00, 0x00, 0x18, 0x00, 0x00, 0x00,
        0x04, 0x00, 0x00, 0x00, 0x01, 0x00, 0x00, 0x00, 0x7c, 0x00, 0x00, 0x00, 0x00, 0x00, 0x00,
        0x00, 0x00, 0x00, 0x00, 0x00, 0x01, 0x00, 0x00, 0x00, 0xcd, 0x90, 0xb8, 0x3a, 0x01, 0x00,
        0x00, 0x00, 0x32, 0xe4, 0x3c, 0x3e, 0x01, 0x00, 0x00, 0x00, 0x46, 0xcc, 0x32, 0xbe, 0x90,
        0x01, 0x00, 0x00, 0x7f, 0x74, 0x7f, 0x7e, 0x7f, 0x8b, 0x8b, 0x7c, 0x74, 0x5e, 0x85, 0x79,
        0x87, 0x74, 0x95, 0x7b, 0x75, 0x86, 0x7a, 0x7c, 0x75, 0x7d, 0x7a, 0x79, 0x67, 0xa4, 0x60,
        0x69, 0x73, 0xe1, 0x45, 0x6c, 0x8b, 0x4c, 0x60, 0x7f, 0x79, 0x6f, 0x9e, 0x7b, 0x7d, 0x7b,
        0x7d, 0x7e, 0x8e, 0x5c, 0x93, 0x87, 0xa2, 0x7c, 0x85, 0x7f, 0x89, 0x83, 0x33, 0x7c, 0x76,
        0x73, 0x9f, 0x7f, 0x7e, 0x78, 0x80, 0x7d, 0x7a, 0x8b, 0x6f, 0x7a, 0x78, 0x8a, 0x7c, 0x80,
        0x6b, 0x73, 0x89, 0x7e, 0x7c, 0x82, 0x78, 0x7a, 0x79, 0x7b, 0x78, 0x7c, 0x7e, 0x78, 0x80,
        0x7f, 0x74, 0x7a, 0x7f, 0x7c, 0x79, 0x7c, 0x71, 0x7c, 0x80, 0x76, 0x85, 0x7c, 0x7e, 0x84,
        0x7f, 0x7c, 0x80, 0x73, 0x85, 0x7d, 0x77, 0x6d, 0x8b, 0x7b, 0x82, 0x69, 0x88, 0x7c, 0x78,
        0x86, 0x82, 0x7b, 0x74, 0x80, 0x76, 0x78, 0x6b, 0xb1, 0x60, 0x6e, 0x7b, 0xa3, 0x56, 0x71,
        0x87, 0x70, 0x76, 0x7b, 0x7a, 0x72, 0x92, 0x7d, 0x80, 0x69, 0x86, 0x81, 0x8c, 0x6e, 0x8f,
        0x7f, 0x8c, 0x9a, 0x5e, 0x7c, 0x8f, 0x66, 0x5f, 0x80, 0x75, 0x77, 0x8e, 0x7d, 0x7c, 0x81,
        0x74, 0x7c, 0x7b, 0x80, 0x7b, 0x7e, 0x84, 0x80, 0x89, 0x7e, 0x6a, 0x83, 0x5f, 0x7d, 0x7d,
        0x7c, 0x88, 0x7b, 0x7b, 0x79, 0x7e, 0x7c, 0x7c, 0x78, 0x7b, 0x7e, 0x77, 0x82, 0x7a, 0x7d,
        0x77, 0x78, 0x7d, 0x7c, 0x80, 0x77, 0x81, 0x7d, 0x7e, 0xad, 0x75, 0x80, 0x7b, 0xab, 0x5f,
        0x82, 0x7a, 0x81, 0x66, 0x67, 0x7e, 0x98, 0x4b, 0x70, 0x8e, 0x8a, 0x84, 0x7e, 0x76, 0x87,
        0x7b, 0x79, 0x8c, 0x25, 0x80, 0x74, 0x73, 0x15, 0x52, 0x63, 0x75, 0x0e, 0x1f, 0x75, 0x92,
        0x53, 0xbe, 0x85, 0x86, 0x64, 0x87, 0x73, 0x74, 0xa4, 0x6e, 0x7b, 0x8c, 0x9c, 0xac, 0x77,
        0x7e, 0x84, 0x53, 0x70, 0x95, 0xab, 0xbe, 0x78, 0x75, 0x82, 0x87, 0x7e, 0x70, 0x95, 0x99,
        0x7a, 0x4b, 0x75, 0x88, 0x83, 0x79, 0x7e, 0x82, 0x77, 0x71, 0x73, 0x69, 0x7c, 0x8c, 0x8b,
        0x7e, 0x85, 0x90, 0x7a, 0x77, 0x82, 0x86, 0x78, 0x78, 0x7f, 0x7a, 0x8b, 0x57, 0x7a, 0x88,
        0x9f, 0x4d, 0x7b, 0x85, 0x7d, 0x84, 0x7f, 0x78, 0x66, 0x80, 0x80, 0x7d, 0x7d, 0x90, 0x7d,
        0x7d, 0x86, 0x7b, 0x7d, 0x7b, 0x86, 0x77, 0x7b, 0x76, 0x70, 0x66, 0x73, 0x63, 0xff, 0x6d,
        0x67, 0x81, 0x24, 0x64, 0x79, 0x75, 0x80, 0x95, 0x7b, 0x76, 0x70, 0x78, 0x7b, 0x7b, 0x5d,
        0x95, 0x80, 0x82, 0xa1, 0x94, 0x76, 0xaf, 0x9f, 0x00, 0x7a, 0x7c, 0x73, 0xae, 0x81, 0x80,
        0x7b, 0x88, 0x7d, 0x80, 0x84, 0x69, 0x7f, 0x8d, 0x6b, 0x9a, 0x86, 0x7e, 0x62, 0x8c, 0x81,
        0x60, 0x88, 0x66, 0x7a, 0x81, 0x79, 0x7c, 0x7e, 0x79, 0x76, 0x7c, 0x7d, 0x76, 0x8f, 0x74,
        0x78, 0x6a, 0x8b, 0x62, 0x7d, 0x80, 0x64, 0x8c, 0x7d, 0x7d, 0x81, 0x7f, 0x7a, 0x96, 0xef,
        0xff, 0xff, 0x00, 0x00, 0x00, 0x03, 0x10, 0x00, 0x00, 0x00, 0x0f, 0x00, 0x00, 0x00, 0x1c,
        0x00, 0x00, 0x00, 0x44, 0x00, 0x00, 0x00, 0x04, 0x00, 0x00, 0x00, 0x04, 0x00, 0x00, 0x00,
        0x05, 0x00, 0x00, 0x00, 0x05, 0x00, 0x00, 0x00, 0x04, 0x00, 0x00, 0x00, 0x26, 0x00, 0x00,
        0x00, 0x77, 0x65, 0x69, 0x67, 0x68, 0x74, 0x5f, 0x71, 0x75, 0x61, 0x6e, 0x74, 0x5f, 0x31,
        0x2f, 0x46, 0x61, 0x6b, 0x65, 0x51, 0x75, 0x61, 0x6e, 0x74, 0x57, 0x69, 0x74, 0x68, 0x4d,
        0x69, 0x6e, 0x4d, 0x61, 0x78, 0x56, 0x61, 0x72, 0x73, 0x00, 0x00, 0xa4, 0xf0, 0xff, 0xff,
        0x30, 0x00, 0x00, 0x00, 0x24, 0x00, 0x00, 0x00, 0x18, 0x00, 0x00, 0x00, 0x04, 0x00, 0x00,
        0x00, 0x01, 0x00, 0x00, 0x00, 0x9a, 0x00, 0x00, 0x00, 0x00, 0x00, 0x00, 0x00, 0x00, 0x00,
        0x00, 0x00, 0x01, 0x00, 0x00, 0x00, 0x7b, 0x3f, 0x9c, 0x3b, 0x01, 0x00, 0x00, 0x00, 0x2e,
        0x94, 0xf6, 0x3e, 0x01, 0x00, 0x00, 0x00, 0x60, 0xfc, 0x3b, 0xbf, 0x90, 0x01, 0x00, 0x00,
        0x76, 0x90, 0xad, 0xff, 0x97, 0xa5, 0x93, 0x8c, 0x99, 0x70, 0x8b, 0x5c, 0x9e, 0xa3, 0x94,
        0xa9, 0x9a, 0xa7, 0xa7, 0x9b, 0xa6, 0xca, 0x87, 0xdf, 0x9b, 0x97, 0x6e, 0x68, 0xac, 0x57,
        0xde, 0xbe, 0x9c, 0xbf, 0xbc, 0xa7, 0x81, 0x89, 0x7f, 0x89, 0x95, 0xbd, 0x9e, 0xff, 0xaa,
        0xc3, 0xa0, 0x94, 0x1b, 0xa6, 0x65, 0xb3, 0xc5, 0xb9, 0xe0, 0xc5, 0xb1, 0x82, 0x8a, 0x45,
        0x94, 0x9e, 0xb0, 0xd8, 0x95, 0x89, 0x7c, 0x6c, 0xad, 0x89, 0xa0, 0xa0, 0x6a, 0x99, 0xb2,
        0xab, 0xa2, 0xa6, 0x97, 0x7d, 0x88, 0x9e, 0x92, 0x90, 0xa4, 0x8a, 0xaf, 0xbf, 0x91, 0x91,
        0x96, 0x6c, 0xab, 0xae, 0xa2, 0x8d, 0x96, 0xa6, 0x89, 0xb4, 0x8f, 0x99, 0x91, 0x9d, 0x80,
        0xa5, 0xad, 0xa0, 0x8e, 0xa0, 0xa7, 0xc1, 0xa2, 0xa9, 0x8d, 0x33, 0x96, 0x95, 0x98, 0xda,
        0xd4, 0x9a, 0xad, 0x84, 0x88, 0x81, 0x95, 0x94, 0x71, 0x81, 0x97, 0x84, 0x71, 0x87, 0xa7,
        0xa1, 0xb4, 0xae, 0x65, 0xa0, 0x6a, 0x89, 0xc4, 0xcd, 0xd5, 0xd4, 0xa2, 0x73, 0xd5, 0x2c,
        0x6a, 0x1e, 0x7d, 0xbf, 0xae, 0xe9, 0xba, 0xaa, 0x87, 0xb1, 0x56, 0xfd, 0x70, 0x67, 0x85,
        0x7b, 0x5c, 0xb4, 0xcb, 0xec, 0x95, 0xe9, 0xb0, 0x76, 0xa9, 0x8d, 0x40, 0x80, 0xf8, 0x6d,
        0x86, 0x74, 0x87, 0x6e, 0xc6, 0xa9, 0x99, 0xa1, 0x17, 0x93, 0x9f, 0xac, 0xd4, 0xe7, 0x92,
        0x5c, 0xa2, 0xa6, 0xb9, 0xd8, 0xb2, 0xa5, 0x97, 0x96, 0x97, 0xab, 0x94, 0xa0, 0xa0, 0xa9,
        0x8a, 0x99, 0x93, 0x9c, 0x8d, 0x96, 0x9d, 0xad, 0xa3, 0x97, 0xa9, 0xaf, 0x9b, 0x9a, 0xa8,
        0xb2, 0x91, 0x94, 0xaa, 0xb5, 0x8c, 0xaf, 0xad, 0xb4, 0x95, 0x8b, 0xa1, 0xb3, 0x93, 0x8d,
        0xa7, 0xae, 0xab, 0x9b, 0x95, 0xaf, 0x93, 0xa5, 0x9a, 0xa2, 0x94, 0xa7, 0xa3, 0xb1, 0x8c,
        0x9a, 0x9c, 0xb1, 0x93, 0x8b, 0x98, 0xac, 0x85, 0x9b, 0x96, 0x9d, 0x96, 0xa5, 0xa4, 0xa4,
        0x97, 0xa2, 0xab, 0x91, 0x88, 0xa0, 0xa1, 0xa2, 0x89, 0xab, 0xa1, 0xc1, 0x8b, 0x9d, 0xa0,
        0xc2, 0x8e, 0xb6, 0x92, 0xb3, 0x92, 0xb5, 0xaa, 0xb4, 0x91, 0xa5, 0xae, 0xa8, 0x96, 0xac,
        0xa1, 0xb5, 0x98, 0x92, 0x98, 0x9a, 0x96, 0x9b, 0x95, 0xad, 0x95, 0xab, 0x9a, 0xa3, 0x95,
        0x8f, 0xa6, 0xb1, 0x90, 0xa5, 0x87, 0x74, 0x9e, 0x98, 0x9e, 0xa2, 0x98, 0x98, 0x8f, 0x95,
        0xb7, 0x7b, 0x91, 0x8b, 0x9d, 0xca, 0x90, 0xa6, 0x93, 0x88, 0x9e, 0x9e, 0x8d, 0x8e, 0x87,
        0x7e, 0x99, 0xb1, 0x82, 0x9f, 0x80, 0x00, 0xd1, 0x9d, 0x8d, 0x66, 0xb3, 0x8b, 0xa0, 0xb0,
        0xad, 0x94, 0x9a, 0x84, 0xa4, 0xa6, 0xaa, 0xbc, 0x7a, 0x86, 0x86, 0x5c, 0x7e, 0x97, 0xac,
        0xcb, 0xb4, 0x9d, 0x92, 0x81, 0x8e, 0x9c, 0x9f, 0xab, 0x99, 0x94, 0x99, 0x83, 0x8e, 0x98,
        0xa7, 0xb9, 0x90, 0x98, 0x8e, 0x83, 0x9f, 0xa2, 0xa2, 0xc1, 0xbe, 0xf1, 0xff, 0xff, 0x00,
        0x00, 0x00, 0x03, 0x10, 0x00, 0x00, 0x00, 0x0e, 0x00, 0x00, 0x00, 0x1c, 0x00, 0x00, 0x00,
        0x44, 0x00, 0x00, 0x00, 0x04, 0x00, 0x00, 0x00, 0x04, 0x00, 0x00, 0x00, 0x05, 0x00, 0x00,
        0x00, 0x05, 0x00, 0x00, 0x00, 0x04, 0x00, 0x00, 0x00, 0x26, 0x00, 0x00, 0x00, 0x77, 0x65,
        0x69, 0x67, 0x68, 0x74, 0x5f, 0x71, 0x75, 0x61, 0x6e, 0x74, 0x5f, 0x32, 0x2f, 0x46, 0x61,
        0x6b, 0x65, 0x51, 0x75, 0x61, 0x6e, 0x74, 0x57, 0x69, 0x74, 0x68, 0x4d, 0x69, 0x6e, 0x4d,
        0x61, 0x78, 0x56, 0x61, 0x72, 0x73, 0x00, 0x00, 0xcc, 0xf2, 0xff, 0xff, 0x30, 0x00, 0x00,
        0x00, 0x24, 0x00, 0x00, 0x00, 0x18, 0x00, 0x00, 0x00, 0x04, 0x00, 0x00, 0x00, 0x01, 0x00,
        0x00, 0x00, 0xb8, 0x00, 0x00, 0x00, 0x00, 0x00, 0x00, 0x00, 0x00, 0x00, 0x00, 0x00, 0x01,
        0x00, 0x00, 0x00, 0xf3, 0xa3, 0x5a, 0x3c, 0x01, 0x00, 0x00, 0x00, 0xe1, 0x8d, 0x72, 0x3f,
        0x01, 0x00, 0x00, 0x00, 0xd6, 0x25, 0x1d, 0xc0, 0x90, 0x01, 0x00, 0x00, 0xbd, 0xb9, 0xbc,
        0xc7, 0xb7, 0xa3, 0xbc, 0xd2, 0xbd, 0xa3, 0xca, 0xce, 0xad, 0xac, 0xd8, 0xbd, 0xaf, 0xb3,
        0xc8, 0xc3, 0xac, 0xcd, 0xb2, 0xd7, 0xb8, 0xde, 0x91, 0xe9, 0xb1, 0xcc, 0x6b, 0xe0, 0xb1,
        0xc7, 0xbd, 0xb6, 0xa5, 0xc4, 0xac, 0xc8, 0xb6, 0xae, 0xd4, 0xbf, 0xc8, 0xb1, 0xd6, 0xce,
        0x8d, 0xac, 0xe4, 0xf7, 0xc5, 0xb3, 0xb3, 0xd8, 0xbb, 0xb7, 0xb9, 0xdf, 0x9f, 0xb9, 0xa6,
        0x82, 0xc2, 0xb8, 0xc8, 0x84, 0xc0, 0xbb, 0xbd, 0x8e, 0xca, 0xb7, 0xb1, 0xbf, 0xb7, 0xb6,
        0xbd, 0x9d, 0xc2, 0xb7, 0xae, 0x99, 0xab, 0xb9, 0xa8, 0x83, 0xdc, 0xb3, 0xb4, 0x76, 0xc0,
        0xb6, 0xad, 0x93, 0xce, 0xb3, 0xb6, 0x96, 0xb7, 0xbc, 0xaf, 0xc2, 0xb9, 0xbd, 0xbd, 0xc2,
        0xb3, 0xb5, 0xc1, 0xda, 0xb3, 0xb2, 0xb3, 0xc8, 0xae, 0xb9, 0xc1, 0xbd, 0xc5, 0xca, 0xc8,
        0xca, 0xac, 0xac, 0xbf, 0xde, 0xb5, 0xb8, 0xb4, 0xd2, 0xc2, 0xb6, 0xac, 0xc9, 0xae, 0xb6,
        0xae, 0xc5, 0xa3, 0xbc, 0xcf, 0xad, 0xc4, 0xd1, 0xb5, 0xb3, 0xd3, 0x68, 0xc3, 0xbf, 0xc0,
        0xb4, 0xe6, 0xbc, 0xc5, 0xba, 0xb0, 0xc1, 0x92, 0xba, 0xa8, 0x85, 0xd2, 0xb4, 0xa5, 0xa4,
        0xc7, 0xb2, 0xa4, 0xa4, 0xa0, 0xb9, 0xe0, 0xb2, 0xbd, 0xbb, 0xb9, 0xac, 0xae, 0xb5, 0xa5,
        0x9c, 0xba, 0xab, 0xac, 0xaa, 0xb5, 0xba, 0xab, 0x9f, 0xc0, 0xb7, 0xc4, 0xa3, 0xbd, 0xb7,
        0xb2, 0xb1, 0xb6, 0xb8, 0xb6, 0xb7, 0xb7, 0xb8, 0xbd, 0xb2, 0xbd, 0xb7, 0xba, 0xad, 0xb9,
        0xb5, 0xb6, 0xc4, 0xbb, 0xb4, 0xb5, 0xe1, 0xb5, 0xb2, 0xba, 0xb0, 0xb2, 0xbc, 0xb3, 0xa4,
        0xb7, 0xb6, 0xba, 0xa5, 0xc6, 0xbd, 0xba, 0xd5, 0xc3, 0xbc, 0xba, 0xe9, 0xb5, 0xbc, 0xb5,
        0xad, 0xb1, 0xaf, 0xa1, 0xb2, 0xb4, 0xba, 0xc2, 0x92, 0xbe, 0xbc, 0xc2, 0xd7, 0xcd, 0xbe,
        0xb7, 0xe2, 0xb6, 0xb0, 0xb4, 0xab, 0xbb, 0xb9, 0xb7, 0xa6, 0xb0, 0xba, 0xbc, 0xb1, 0xc1,
        0xbb, 0xc1, 0xd7, 0xc2, 0xb9, 0xb6, 0xd7, 0xb0, 0xb8, 0xb4, 0xbd, 0xb8, 0xb7, 0xbb, 0xb0,
        0xb1, 0xb7, 0xb6, 0xb2, 0xbc, 0xbc, 0xb1, 0xb0, 0xca, 0xba, 0xbc, 0xc5, 0xb5, 0xa2, 0xb5,
        0xab, 0xaa, 0xb1, 0xac, 0xaa, 0xc7, 0xc2, 0xbf, 0xa1, 0xac, 0xa9, 0xbc, 0xb6, 0xb5, 0xb4,
        0xb6, 0xb4, 0xc7, 0xbb, 0xb4, 0xa6, 0xd4, 0xa8, 0xcf, 0xa6, 0xbe, 0xb3, 0xb7, 0xde, 0xcb,
        0xb3, 0xac, 0x96, 0xb9, 0xb0, 0xc3, 0xbc, 0xb2, 0xbd, 0xb2, 0xbe, 0x9c, 0xec, 0xb3, 0xe2,
        0xb9, 0xff, 0xd9, 0xb9, 0x84, 0xc7, 0xdd, 0xff, 0xab, 0xb5, 0xa7, 0xa2, 0xe7, 0x94, 0xd6,
        0xc8, 0xa3, 0xb9, 0xac, 0x7c, 0xb6, 0xa2, 0xee, 0xc6, 0xec, 0xaf, 0x00, 0xbc, 0xb3, 0xaa,
        0xea, 0xdf, 0xb4, 0xbc, 0xa8, 0xbf, 0xb9, 0xb5, 0xc8, 0xbf, 0xcc, 0xbe, 0x88, 0x93, 0xa4,
        0xb3, 0xe4, 0xa5, 0xde, 0xb6, 0xc7, 0x8a, 0xe6, 0xf3, 0xff, 0xff, 0x00, 0x00, 0x00, 0x03,
        0x10, 0x00, 0x00, 0x00, 0x0d, 0x00, 0x00, 0x00, 0x1c, 0x00, 0x00, 0x00, 0x44, 0x00, 0x00,
        0x00, 0x04, 0x00, 0x00, 0x00, 0x04, 0x00, 0x00, 0x00, 0x05, 0x00, 0x00, 0x00, 0x05, 0x00,
        0x00, 0x00, 0x04, 0x00, 0x00, 0x00, 0x26, 0x00, 0x00, 0x00, 0x77, 0x65, 0x69, 0x67, 0x68,
        0x74, 0x5f, 0x71, 0x75, 0x61, 0x6e, 0x74, 0x5f, 0x33, 0x2f, 0x46, 0x61, 0x6b, 0x65, 0x51,
        0x75, 0x61, 0x6e, 0x74, 0x57, 0x69, 0x74, 0x68, 0x4d, 0x69, 0x6e, 0x4d, 0x61, 0x78, 0x56,
        0x61, 0x72, 0x73, 0x00, 0x00, 0xf4, 0xf4, 0xff, 0xff, 0x30, 0x00, 0x00, 0x00, 0x24, 0x00,
        0x00, 0x00, 0x18, 0x00, 0x00, 0x00, 0x04, 0x00, 0x00, 0x00, 0x01, 0x00, 0x00, 0x00, 0x74,
        0x00, 0x00, 0x00, 0x00, 0x00, 0x00, 0x00, 0x00, 0x00, 0x00, 0x00, 0x01, 0x00, 0x00, 0x00,
        0x63, 0xd2, 0x8c, 0x3c, 0x01, 0x00, 0x00, 0x00, 0x78, 0xec, 0x18, 0x40, 0x01, 0x00, 0x00,
        0x00, 0x54, 0x3d, 0xff, 0xbf, 0x90, 0x01, 0x00, 0x00, 0x6d, 0x6b, 0x6a, 0x61, 0x6e, 0x3a,
        0x90, 0x51, 0x80, 0x78, 0xbd, 0x6b, 0x6b, 0x83, 0x6e, 0x76, 0x72, 0x75, 0x69, 0x76, 0x73,
        0x4a, 0x86, 0x74, 0x76, 0x90, 0xb3, 0x5f, 0x67, 0x9e, 0x55, 0x60, 0x80, 0x5f, 0x53, 0x6a,
        0x8c, 0x70, 0x7b, 0x69, 0x7a, 0x7c, 0x82, 0x7a, 0x55, 0x95, 0x6f, 0x63, 0x8a, 0x66, 0x02,
        0x72, 0x81, 0x67, 0x64, 0x67, 0x7e, 0x6a, 0x96, 0x68, 0x76, 0x81, 0x6f, 0x7f, 0x8d, 0x78,
        0x53, 0x6f, 0x62, 0x66, 0x5e, 0x6b, 0x6f, 0x7e, 0xa8, 0x71, 0x6c, 0x75, 0x6f, 0x73, 0x6e,
        0x84, 0x60, 0x7b, 0x78, 0x77, 0x64, 0x6e, 0x77, 0x6b, 0x92, 0x6b, 0x72, 0x70, 0x85, 0x76,
        0x77, 0x77, 0x68, 0x77, 0x76, 0x73, 0x75, 0x75, 0x75, 0x7c, 0x77, 0x77, 0x78, 0x7a, 0x73,
        0x71, 0x6d, 0x6c, 0x74, 0x6e, 0x78, 0x72, 0x78, 0x6f, 0x74, 0x71, 0x7a, 0x75, 0x74, 0x5f,
        0x7e, 0x6b, 0x77, 0x86, 0x77, 0x65, 0x71, 0x75, 0x79, 0x6e, 0x76, 0x71, 0x72, 0x6d, 0x76,
        0x77, 0x6c, 0x71, 0x75, 0x68, 0x67, 0x6f, 0x91, 0x67, 0x5b, 0x66, 0x61, 0x8e, 0x80, 0x7e,
        0x6f, 0x70, 0x7d, 0x74, 0x75, 0x6c, 0x74, 0x6e, 0x7c, 0x75, 0x71, 0x71, 0x68, 0x65, 0x76,
        0x6d, 0x95, 0x72, 0x55, 0x76, 0x75, 0x7e, 0x7f, 0x75, 0x68, 0x78, 0x72, 0x73, 0x6f, 0x76,
        0x78, 0x73, 0x6a, 0x73, 0x7e, 0x71, 0x70, 0x79, 0x6b, 0x77, 0x88, 0x71, 0x65, 0x76, 0x74,
        0x78, 0x7c, 0x78, 0x7a, 0x6a, 0x79, 0x71, 0x6e, 0x6d, 0x67, 0x66, 0x76, 0x7d, 0x84, 0x6d,
        0x77, 0x73, 0x72, 0x72, 0x71, 0x7f, 0x72, 0x71, 0x7c, 0x6f, 0x92, 0x63, 0x6c, 0x69, 0x65,
        0x6b, 0x72, 0x6d, 0x58, 0x6f, 0x7c, 0x74, 0x7a, 0x6f, 0x6e, 0x83, 0x74, 0x6e, 0x6c, 0x79,
        0x7f, 0x63, 0x6e, 0x7f, 0x98, 0x71, 0x71, 0x78, 0x52, 0x75, 0x74, 0x75, 0x6a, 0x74, 0x79,
        0x6f, 0x70, 0x73, 0x79, 0x7c, 0x5e, 0x71, 0x70, 0x69, 0x86, 0x75, 0x73, 0x72, 0x93, 0x74,
        0x73, 0x76, 0x6f, 0x74, 0x6b, 0x71, 0x73, 0x74, 0x80, 0x76, 0x6b, 0x73, 0x74, 0x77, 0x6c,
        0x76, 0x83, 0x76, 0x7d, 0x73, 0x75, 0x71, 0x79, 0x75, 0x7c, 0xa6, 0x6b, 0x74, 0x73, 0x5b,
        0x50, 0x56, 0x71, 0xb9, 0x6a, 0x81, 0x79, 0x61, 0x7e, 0x66, 0x6d, 0xab, 0x63, 0x6e, 0x88,
        0x50, 0x6f, 0x75, 0x84, 0x6f, 0x78, 0x4d, 0x3e, 0x94, 0x49, 0x97, 0x90, 0x40, 0x9e, 0x61,
        0x75, 0x62, 0x4f, 0x76, 0x66, 0x76, 0x79, 0x65, 0x72, 0x6e, 0x7b, 0x7f, 0x00, 0xc6, 0x6e,
        0x5b, 0xdf, 0xff, 0x9a, 0x60, 0x24, 0xb0, 0x4c, 0x77, 0x72, 0x70, 0x8e, 0x65, 0x94, 0x8a,
        0xa8, 0x8e, 0x76, 0x33, 0xcf, 0x64, 0x9a, 0xd1, 0x09, 0x76, 0x66, 0x5b, 0x7b, 0x80, 0x82,
        0x82, 0x7e, 0x71, 0x88, 0x81, 0x6c, 0x7b, 0x96, 0x93, 0x95, 0x73, 0x14, 0x92, 0x34, 0x7c,
        0xa9, 0x76, 0x6d, 0x73, 0x0e, 0xf6, 0xff, 0xff, 0x00, 0x00, 0x00, 0x03, 0x10, 0x00, 0x00,
        0x00, 0x0c, 0x00, 0x00, 0x00, 0x1c, 0x00, 0x00, 0x00, 0x44, 0x00, 0x00, 0x00, 0x04, 0x00,
        0x00, 0x00, 0x04, 0x00, 0x00, 0x00, 0x05, 0x00, 0x00, 0x00, 0x05, 0x00, 0x00, 0x00, 0x03,
        0x00, 0x00, 0x00, 0x26, 0x00, 0x00, 0x00, 0x77, 0x65, 0x69, 0x67, 0x68, 0x74, 0x5f, 0x71,
        0x75, 0x61, 0x6e, 0x74, 0x5f, 0x34, 0x2f, 0x46, 0x61, 0x6b, 0x65, 0x51, 0x75, 0x61, 0x6e,
        0x74, 0x57, 0x69, 0x74, 0x68, 0x4d, 0x69, 0x6e, 0x4d, 0x61, 0x78, 0x56, 0x61, 0x72, 0x73,
        0x00, 0x00, 0x1c, 0xf7, 0xff, 0xff, 0x2c, 0x00, 0x00, 0x00, 0x20, 0x00, 0x00, 0x00, 0x14,
        0x00, 0x00, 0x00, 0x04, 0x00, 0x00, 0x00, 0x01, 0x00, 0x00, 0x00, 0x39, 0x00, 0x00, 0x00,
        0x00, 0x00, 0x00, 0x00, 0x01, 0x00, 0x00, 0x00, 0xc1, 0xb5, 0xc1, 0x3b, 0x01, 0x00, 0x00,
        0x00, 0x69, 0xd2, 0x95, 0x3f, 0x01, 0x00, 0x00, 0x00, 0x87, 0x86, 0xac, 0xbe, 0x2c, 0x01,
        0x00, 0x00, 0x36, 0x3a, 0x36, 0x35, 0x31, 0x35, 0x45, 0x32, 0x42, 0x3b, 0x30, 0x3f, 0x34,
        0x3b, 0x32, 0x3d, 0x3d, 0x41, 0x43, 0x25, 0x2c, 0x93, 0x3c, 0x4c, 0x62, 0x29, 0x3f, 0x39,
        0x33, 0x3b, 0x3b, 0x3d, 0x3c, 0x5d, 0x30, 0x34, 0xc4, 0x59, 0x45, 0x9c, 0x4d, 0x4a, 0x43,
        0x3b, 0x41, 0x39, 0x3f, 0x39, 0x44, 0x3c, 0x2f, 0x53, 0x29, 0x29, 0x53, 0x37, 0x37, 0x3a,
        0x3e, 0x38, 0x39, 0x3c, 0x38, 0x37, 0x3c, 0x36, 0x3c, 0x3a, 0x3d, 0x36, 0x37, 0x3c, 0x36,
        0x3d, 0x37, 0x32, 0x3c, 0x36, 0x38, 0x36, 0x3d, 0x42, 0x30, 0x44, 0x40, 0x2f, 0x3a, 0x33,
        0x39, 0x35, 0x38, 0x34, 0x37, 0x3c, 0x40, 0x61, 0x31, 0x35, 0x87, 0x3e, 0x2f, 0x69, 0x3d,
        0x34, 0x3e, 0x47, 0x42, 0x3b, 0x27, 0x31, 0x62, 0x44, 0x5b, 0xcd, 0x35, 0x44, 0x94, 0x41,
        0x34, 0x42, 0x3a, 0x36, 0x34, 0x34, 0x37, 0x46, 0x29, 0x37, 0x71, 0x33, 0x37, 0x60, 0x3b,
        0x38, 0x3d, 0x3b, 0x43, 0x38, 0x3a, 0x37, 0x3a, 0x3f, 0x39, 0x3b, 0x43, 0x37, 0x3b, 0x35,
        0x42, 0x3c, 0x32, 0x39, 0x31, 0x37, 0x33, 0x36, 0x39, 0x40, 0x34, 0x24, 0x21, 0x31, 0x28,
        0x3a, 0x2d, 0x3a, 0x36, 0x39, 0x25, 0x31, 0x22, 0x22, 0x37, 0x30, 0x00, 0x0a, 0x14, 0x31,
        0x23, 0x2f, 0x47, 0x48, 0x3c, 0x31, 0x49, 0x3d, 0xe3, 0xff, 0xa4, 0x3a, 0x4a, 0x40, 0x41,
        0x3e, 0x31, 0x3d, 0x30, 0x39, 0x1f, 0x30, 0x2e, 0x47, 0x55, 0x48, 0x00, 0x0d, 0x16, 0x2f,
        0x2e, 0x3f, 0x30, 0x34, 0x33, 0x3a, 0x2e, 0x39, 0x40, 0x36, 0x37, 0x2c, 0x24, 0x36, 0x31,
        0x36, 0x2f, 0x3e, 0x36, 0x3b, 0x3f, 0x3e, 0x3d, 0x36, 0x46, 0x3d, 0x36, 0x3b, 0x33, 0x42,
        0x3c, 0x3f, 0x35, 0x38, 0x38, 0x1b, 0x31, 0x29, 0x21, 0x57, 0x24, 0x0c, 0x29, 0x19, 0x44,
        0x3f, 0x3f, 0x39, 0x4a, 0x3c, 0x49, 0x7f, 0x3f, 0xb5, 0xfb, 0x83, 0x23, 0x64, 0x21, 0x40,
        0x51, 0x3f, 0x32, 0x3a, 0x2e, 0x21, 0x3c, 0x28, 0x1e, 0x63, 0x23, 0x0d, 0x39, 0x1d, 0x3c,
        0x4b, 0x3f, 0x48, 0x41, 0x46, 0x30, 0x31, 0x36, 0x40, 0x4d, 0x3e, 0x2e, 0x40, 0x37, 0x33,
        0x38, 0x3a, 0xce, 0xf7, 0xff, 0xff, 0x00, 0x00, 0x00, 0x02, 0x10, 0x00, 0x00, 0x00, 0x0b,
        0x00, 0x00, 0x00, 0x10, 0x00, 0x00, 0x00, 0x1c, 0x00, 0x00, 0x00, 0x01, 0x00, 0x00, 0x00,
        0x04, 0x00, 0x00, 0x00, 0x0b, 0x00, 0x00, 0x00, 0x43, 0x6f, 0x6e, 0x76, 0x32, 0x44, 0x5f,
        0x62, 0x69, 0x61, 0x73, 0x00, 0xbc, 0xf7, 0xff, 0xff, 0x18, 0x00, 0x00, 0x00, 0x04, 0x00,
        0x00, 0x00, 0x01, 0x00, 0x00, 0x00, 0x00, 0x00, 0x00, 0x00, 0x00, 0x00, 0x00, 0x00, 0x00,
        0x00, 0x00, 0x00, 0x01, 0x00, 0x00, 0x00, 0x39, 0x78, 0xc2, 0x37, 0x10, 0x00, 0x00, 0x00,
        0x0c, 0xad, 0xff, 0xff, 0xcf, 0xa3, 0xff, 0xff, 0x34, 0x94, 0xff, 0xff, 0x1c, 0x17, 0x00,
        0x00, 0x36, 0xf8, 0xff, 0xff, 0x00, 0x00, 0x00, 0x03, 0x10, 0x00, 0x00, 0x00, 0x0a, 0x00,
        0x00, 0x00, 0x1c, 0x00, 0x00, 0x00, 0x44, 0x00, 0x00, 0x00, 0x04, 0x00, 0x00, 0x00, 0x04,
        0x00, 0x00, 0x00, 0x05, 0x00, 0x00, 0x00, 0x05, 0x00, 0x00, 0x00, 0x04, 0x00, 0x00, 0x00,
        0x26, 0x00, 0x00, 0x00, 0x77, 0x65, 0x69, 0x67, 0x68, 0x74, 0x5f, 0x71, 0x75, 0x61, 0x6e,
        0x74, 0x5f, 0x35, 0x2f, 0x46, 0x61, 0x6b, 0x65, 0x51, 0x75, 0x61, 0x6e, 0x74, 0x57, 0x69,
        0x74, 0x68, 0x4d, 0x69, 0x6e, 0x4d, 0x61, 0x78, 0x56, 0x61, 0x72, 0x73, 0x00, 0x00, 0x44,
        0xf9, 0xff, 0xff, 0x2c, 0x00, 0x00, 0x00, 0x20, 0x00, 0x00, 0x00, 0x14, 0x00, 0x00, 0x00,
        0x04, 0x00, 0x00, 0x00, 0x01, 0x00, 0x00, 0x00, 0x7c, 0x00, 0x00, 0x00, 0x00, 0x00, 0x00,
        0x00, 0x01, 0x00, 0x00, 0x00, 0x83, 0xb2, 0x8e, 0x3b, 0x01, 0x00, 0x00, 0x00, 0xb2, 0x0a,
        0x12, 0x3f, 0x01, 0x00, 0x00, 0x00, 0xef, 0x3c, 0x0a, 0xbf, 0x90, 0x01, 0x00, 0x00, 0x51,
        0x58, 0x8a, 0x74, 0xbc, 0xa1, 0x6d, 0x92, 0x94, 0x93, 0x5d, 0xad, 0x3c, 0x5a, 0x9f, 0x4e,
        0x90, 0x83, 0xab, 0x4b, 0xa9, 0x9e, 0x5c, 0x90, 0x42, 0x62, 0x9a, 0x95, 0x36, 0x4e, 0x08,
        0x75, 0xc1, 0x9b, 0x09, 0x9d, 0x7a, 0x71, 0x75, 0xad, 0x61, 0x6d, 0x7e, 0x67, 0xa8, 0x93,
        0x4d, 0x64, 0xc8, 0xb4, 0xb9, 0x6c, 0x45, 0x70, 0xd1, 0x5e, 0x61, 0x7b, 0xff, 0x22, 0x7e,
        0x70, 0x92, 0x94, 0x47, 0x6d, 0xb8, 0x2d, 0x61, 0x4b, 0x82, 0x70, 0x7b, 0x80, 0x7f, 0x83,
        0x8c, 0x77, 0x59, 0x85, 0x8e, 0x92, 0x4d, 0x9b, 0x90, 0x78, 0x4f, 0x98, 0x82, 0x9c, 0x4f,
        0x97, 0x84, 0x69, 0x5b, 0x9c, 0x7a, 0x7d, 0xae, 0x61, 0x76, 0x76, 0x97, 0x6b, 0x7c, 0x7c,
        0xb1, 0x5e, 0x77, 0x7c, 0xb0, 0x57, 0x78, 0x87, 0x5b, 0xa3, 0x8c, 0x77, 0xc9, 0x3c, 0x88,
        0x7c, 0x94, 0x65, 0x7c, 0x93, 0x2f, 0xc2, 0x77, 0x4f, 0x96, 0x80, 0xa2, 0xa1, 0x70, 0x73,
        0x52, 0x61, 0x6e, 0x76, 0x59, 0x71, 0x95, 0x85, 0xbe, 0x8d, 0x9e, 0x63, 0x55, 0x6d, 0x9a,
        0x85, 0x88, 0x83, 0x42, 0x64, 0x47, 0x78, 0x7c, 0x5c, 0x7f, 0x7b, 0x93, 0x4f, 0x7b, 0x5f,
        0x93, 0x7f, 0x64, 0xa5, 0xd8, 0x5a, 0x40, 0x3f, 0x11, 0x7c, 0xb3, 0x78, 0xa6, 0x87, 0x82,
        0x7d, 0x74, 0x99, 0x6b, 0x8e, 0x76, 0x5e, 0xa9, 0x5c, 0x60, 0xb4, 0x95, 0xc0, 0x46, 0x93,
        0x59, 0x5f, 0x6a, 0x72, 0x87, 0x86, 0x5a, 0x8c, 0x96, 0x79, 0x9b, 0x90, 0x67, 0x78, 0x84,
        0x6b, 0x84, 0x89, 0x76, 0x71, 0x70, 0x6b, 0x81, 0x79, 0x67, 0x73, 0x8b, 0x76, 0x7a, 0x7b,
        0xa7, 0x81, 0x84, 0x90, 0x5f, 0x84, 0x6c, 0x63, 0x70, 0x4c, 0x68, 0x7f, 0x7c, 0x6b, 0xa3,
        0x96, 0x8b, 0x6a, 0x95, 0x8d, 0xa0, 0xc3, 0x2d, 0x33, 0x00, 0x01, 0x7b, 0x8f, 0x83, 0x5f,
        0x7c, 0x6b, 0x5b, 0x8d, 0x6e, 0x60, 0x6e, 0x70, 0x91, 0x8e, 0xb8, 0x85, 0x64, 0x79, 0xaa,
        0xa3, 0x6a, 0x75, 0x4f, 0xa9, 0x81, 0x8a, 0x94, 0x7c, 0x78, 0x89, 0x88, 0x87, 0x8c, 0x7d,
        0x56, 0x80, 0xae, 0x93, 0x6f, 0x8d, 0x8a, 0x80, 0x89, 0x67, 0x7d, 0x7a, 0x69, 0x7c, 0x86,
        0x98, 0x6f, 0x7e, 0xa5, 0x95, 0x5b, 0x7c, 0x93, 0x89, 0x6b, 0x9a, 0x76, 0x7b, 0xa6, 0x5d,
        0x84, 0x96, 0x77, 0x82, 0x7f, 0x64, 0xb1, 0x44, 0x34, 0x4a, 0x92, 0x82, 0x54, 0x6a, 0x80,
        0x63, 0x75, 0x61, 0x73, 0x68, 0x75, 0x56, 0x76, 0x72, 0x67, 0x6e, 0x69, 0x89, 0x9c, 0xaf,
        0x80, 0x4c, 0x9f, 0x74, 0x97, 0xbe, 0x6b, 0x85, 0x7b, 0x9c, 0x9c, 0xa8, 0x72, 0x87, 0x8c,
        0x89, 0x8e, 0x6a, 0x71, 0x4d, 0x73, 0x97, 0x83, 0xb1, 0x86, 0x4e, 0x9e, 0x71, 0x79, 0x7e,
        0x5f, 0x7a, 0x72, 0x6d, 0x79, 0x71, 0xaa, 0x52, 0x7c, 0x8a, 0x97, 0x6e, 0x60, 0x62, 0x7a,
        0x80, 0x83, 0x85, 0xad, 0x6e, 0x84, 0x6c, 0xa0, 0x65, 0x5a, 0xfa, 0xff, 0xff, 0x00, 0x00,
        0x00, 0x02, 0x10, 0x00, 0x00, 0x00, 0x09, 0x00, 0x00, 0x00, 0x10, 0x00, 0x00, 0x00, 0x20,
        0x00, 0x00, 0x00, 0x01, 0x00, 0x00, 0x00, 0x04, 0x00, 0x00, 0x00, 0x0d, 0x00, 0x00, 0x00,
        0x43, 0x6f, 0x6e, 0x76, 0x32, 0x44, 0x5f, 0x31, 0x5f, 0x62, 0x69, 0x61, 0x73, 0x00, 0x00,
        0x00, 0x4c, 0xfa, 0xff, 0xff, 0x14, 0x00, 0x00, 0x00, 0x04, 0x00, 0x00, 0x00, 0x01, 0x00,
        0x00, 0x00, 0x00, 0x00, 0x00, 0x00, 0x00, 0x00, 0x00, 0x00, 0x01, 0x00, 0x00, 0x00, 0xfd,
        0x47, 0xcf, 0x38, 0x10, 0x00, 0x00, 0x00, 0xa6, 0xf8, 0xff, 0xff, 0x40, 0xf2, 0xff, 0xff,
        0x39, 0xfe, 0xff, 0xff, 0x01, 0xff, 0xff, 0xff, 0xc2, 0xfa, 0xff, 0xff, 0x00, 0x00, 0x00,
        0x02, 0x10, 0x00, 0x00, 0x00, 0x08, 0x00, 0x00, 0x00, 0x10, 0x00, 0x00, 0x00, 0x20, 0x00,
        0x00, 0x00, 0x01, 0x00, 0x00, 0x00, 0x04, 0x00, 0x00, 0x00, 0x0d, 0x00, 0x00, 0x00, 0x43,
        0x6f, 0x6e, 0x76, 0x32, 0x44, 0x5f, 0x32, 0x5f, 0x62, 0x69, 0x61, 0x73, 0x00, 0x00, 0x00,
        0xb4, 0xfa, 0xff, 0xff, 0x14, 0x00, 0x00, 0x00, 0x04, 0x00, 0x00, 0x00, 0x01, 0x00, 0x00,
        0x00, 0x00, 0x00, 0x00, 0x00, 0x00, 0x00, 0x00, 0x00, 0x01, 0x00, 0x00, 0x00, 0x9c, 0x8b,
        0x1b, 0x39, 0x10, 0x00, 0x00, 0x00, 0xf7, 0x04, 0x00, 0x00, 0x1a, 0xfd, 0xff, 0xff, 0xa5,
        0xf8, 0xff, 0xff, 0xa2, 0xfc, 0xff, 0xff, 0x2a, 0xfb, 0xff, 0xff, 0x00, 0x00, 0x00, 0x02,
        0x10, 0x00, 0x00, 0x00, 0x07, 0x00, 0x00, 0x00, 0x10, 0x00, 0x00, 0x00, 0x20, 0x00, 0x00,
        0x00, 0x01, 0x00, 0x00, 0x00, 0x04, 0x00, 0x00, 0x00, 0x0d, 0x00, 0x00, 0x00, 0x43, 0x6f,
        0x6e, 0x76, 0x32, 0x44, 0x5f, 0x33, 0x5f, 0x62, 0x69, 0x61, 0x73, 0x00, 0x00, 0x00, 0x1c,
        0xfb, 0xff, 0xff, 0x14, 0x00, 0x00, 0x00, 0x04, 0x00, 0x00, 0x00, 0x01, 0x00, 0x00, 0x00,
        0x00, 0x00, 0x00, 0x00, 0x00, 0x00, 0x00, 0x00, 0x01, 0x00, 0x00, 0x00, 0xb2, 0xbb, 0xce,
        0x39, 0x10, 0x00, 0x00, 0x00, 0x69, 0xff, 0xff, 0xff, 0x4b, 0x00, 0x00, 0x00, 0x99, 0x00,
        0x00, 0x00, 0x85, 0xfd, 0xff, 0xff, 0x92, 0xfb, 0xff, 0xff, 0x00, 0x00, 0x00, 0x02, 0x10,
        0x00, 0x00, 0x00, 0x06, 0x00, 0x00, 0x00, 0x10, 0x00, 0x00, 0x00, 0x20, 0x00, 0x00, 0x00,
        0x01, 0x00, 0x00, 0x00, 0x04, 0x00, 0x00, 0x00, 0x0d, 0x00, 0x00, 0x00, 0x43, 0x6f, 0x6e,
        0x76, 0x32, 0x44, 0x5f, 0x34, 0x5f, 0x62, 0x69, 0x61, 0x73, 0x00, 0x00, 0x00, 0x84, 0xfb,
        0xff, 0xff, 0x14, 0x00, 0x00, 0x00, 0x04, 0x00, 0x00, 0x00, 0x01, 0x00, 0x00, 0x00, 0x00,
        0x00, 0x00, 0x00, 0x00, 0x00, 0x00, 0x00, 0x01, 0x00, 0x00, 0x00, 0xa3, 0xd6, 0x3a, 0x3a,
        0x10, 0x00, 0x00, 0x00, 0xdf, 0xf9, 0xff, 0xff, 0x94, 0xfd, 0xff, 0xff, 0x1c, 0xfd, 0xff,
        0xff, 0x02, 0xfa, 0xff, 0xff, 0xfa, 0xfb, 0xff, 0xff, 0x00, 0x00, 0x00, 0x02, 0x10, 0x00,
        0x00, 0x00, 0x05, 0x00, 0x00, 0x00, 0x10, 0x00, 0x00, 0x00, 0x20, 0x00, 0x00, 0x00, 0x01,
        0x00, 0x00, 0x00, 0x04, 0x00, 0x00, 0x00, 0x0d, 0x00, 0x00, 0x00, 0x43, 0x6f, 0x6e, 0x76,
        0x32, 0x44, 0x5f, 0x35, 0x5f, 0x62, 0x69, 0x61, 0x73, 0x00, 0x00, 0x00, 0xec, 0xfb, 0xff,
        0xff, 0x18, 0x00, 0x00, 0x00, 0x04, 0x00, 0x00, 0x00, 0x01, 0x00, 0x00, 0x00, 0x00, 0x00,
        0x00, 0x00, 0x00, 0x00, 0x00, 0x00, 0x00, 0x00, 0x00, 0x00, 0x01, 0x00, 0x00, 0x00, 0x41,
        0xa9, 0xef, 0x38, 0x10, 0x00, 0x00, 0x00, 0x90, 0x10, 0x00, 0x00, 0x68, 0x14, 0x00, 0x00,
        0xc0, 0x10, 0x00, 0x00, 0x36, 0x0c, 0x00, 0x00, 0x66, 0xfc, 0xff, 0xff, 0x00, 0x00, 0x00,
        0x03, 0x10, 0x00, 0x00, 0x00, 0x04, 0x00, 0x00, 0x00, 0x1c, 0x00, 0x00, 0x00, 0x44, 0x00,
        0x00, 0x00, 0x04, 0x00, 0x00, 0x00, 0x04, 0x00, 0x00, 0x00, 0x05, 0x00, 0x00, 0x00, 0x05,
        0x00, 0x00, 0x00, 0x04, 0x00, 0x00, 0x00, 0x26, 0x00, 0x00, 0x00, 0x77, 0x65, 0x69, 0x67,
        0x68, 0x74, 0x5f, 0x71, 0x75, 0x61, 0x6e, 0x74, 0x5f, 0x36, 0x2f, 0x46, 0x61, 0x6b, 0x65,
        0x51, 0x75, 0x61, 0x6e, 0x74, 0x57, 0x69, 0x74, 0x68, 0x4d, 0x69, 0x6e, 0x4d, 0x61, 0x78,
        0x56, 0x61, 0x72, 0x73, 0x00, 0x00, 0x74, 0xfd, 0xff, 0xff, 0x2c, 0x00, 0x00, 0x00, 0x20,
        0x00, 0x00, 0x00, 0x14, 0x00, 0x00, 0x00, 0x04, 0x00, 0x00, 0x00, 0x01, 0x00, 0x00, 0x00,
        0x89, 0x00, 0x00, 0x00, 0x00, 0x00, 0x00, 0x00, 0x01, 0x00, 0x00, 0x00, 0x56, 0xbf, 0x0f,
        0x3c, 0x01, 0x00, 0x00, 0x00, 0x64, 0x84, 0x84, 0x3f, 0x01, 0x00, 0x00, 0x00, 0xca, 0xda,
        0x99, 0xbf, 0x90, 0x01, 0x00, 0x00, 0x84, 0x96, 0x85, 0x81, 0x86, 0x7f, 0x8f, 0x82, 0x8b,
        0x94, 0x83, 0x94, 0x88, 0x8b, 0x8a, 0x80, 0x84, 0x89, 0x8c, 0x84, 0x9a, 0x7e, 0x90, 0x85,
        0xa8, 0x58, 0x7c, 0x91, 0x7a, 0x95, 0x89, 0xa0, 0xaa, 0x73, 0x86, 0x93, 0x8c, 0x84, 0x89,
        0x82, 0x7b, 0x9e, 0x79, 0x82, 0x2f, 0x9a, 0xa0, 0xb2, 0x1d, 0xf5, 0xbc, 0xff, 0x76, 0x8e,
        0x71, 0x98, 0x78, 0x94, 0x8f, 0x92, 0xa9, 0x8b, 0x8a, 0x8a, 0x70, 0x2a, 0x8e, 0x8c, 0x4e,
        0xa3, 0x7b, 0xa8, 0xae, 0x51, 0x89, 0x80, 0x8e, 0x85, 0x8a, 0x80, 0x7e, 0x8c, 0x84, 0x81,
        0xa1, 0x8c, 0xa2, 0x8f, 0x7d, 0x96, 0x7b, 0x80, 0x9f, 0x8c, 0x8c, 0x86, 0x82, 0x8f, 0x86,
        0x83, 0x96, 0x8f, 0x7c, 0x80, 0x7f, 0x84, 0x8c, 0x7f, 0x8a, 0x8e, 0x80, 0x91, 0x8b, 0x89,
        0x72, 0x84, 0x88, 0x85, 0x7e, 0x89, 0x83, 0x9a, 0xa3, 0x84, 0x95, 0x83, 0x82, 0x7a, 0x93,
        0x86, 0x84, 0x5f, 0x8f, 0x8a, 0x8d, 0x7a, 0x87, 0x90, 0x85, 0x8a, 0x95, 0x7d, 0xbb, 0x7f,
        0x3f, 0x57, 0x4e, 0x79, 0x6e, 0x9a, 0xfe, 0x95, 0x7f, 0x88, 0xc7, 0xbb, 0x84, 0x81, 0x98,
        0x8b, 0xa8, 0x9b, 0x87, 0x87, 0x63, 0x87, 0x84, 0x85, 0xdf, 0xb3, 0xd1, 0xb0, 0xa0, 0x93,
        0x8b, 0xa4, 0x8f, 0x90, 0x90, 0x7e, 0x8c, 0x8d, 0x84, 0x83, 0x77, 0x6a, 0x6b, 0x92, 0x8c,
        0xa5, 0xa7, 0x89, 0x7f, 0x7c, 0x8e, 0x8d, 0x88, 0x81, 0x86, 0x8c, 0x8e, 0x7d, 0x96, 0x7f,
        0x82, 0x9e, 0x81, 0x91, 0x9e, 0x6e, 0x9b, 0x84, 0x7e, 0x9b, 0x8e, 0x8a, 0x8e, 0x7d, 0x86,
        0x83, 0x82, 0x91, 0x7b, 0x88, 0x60, 0xbb, 0x82, 0xa0, 0xa1, 0x5f, 0x83, 0xb3, 0x71, 0xb3,
        0x77, 0x7a, 0x7e, 0x99, 0x94, 0x8a, 0x9c, 0x83, 0x85, 0x8c, 0x8c, 0x44, 0xa5, 0xa6, 0xff,
        0x00, 0xd8, 0xfa, 0x87, 0x6a, 0x98, 0x9c, 0x9a, 0x6b, 0x8b, 0x90, 0x85, 0x92, 0x83, 0x7f,
        0x59, 0xa6, 0x89, 0x91, 0x94, 0x72, 0x8e, 0x9f, 0x80, 0xa8, 0x8a, 0x91, 0x7d, 0x9f, 0x8b,
        0x7b, 0x91, 0x81, 0x8d, 0x87, 0x7c, 0x8d, 0x88, 0x84, 0x9f, 0x80, 0x8f, 0x8f, 0x8c, 0x97,
        0x86, 0x83, 0x8c, 0x7d, 0x8f, 0x85, 0x85, 0x8f, 0x9a, 0x8f, 0x8c, 0x7b, 0x87, 0x8d, 0x83,
        0x9c, 0x97, 0x8a, 0x8b, 0x7e, 0x8c, 0x90, 0x8a, 0x90, 0x98, 0x86, 0x8f, 0x74, 0x72, 0x90,
        0x95, 0x7e, 0x8b, 0x94, 0x81, 0x85, 0x7d, 0xaa, 0x91, 0x81, 0x82, 0x87, 0x8c, 0x82, 0x83,
        0x8b, 0x70, 0x94, 0x81, 0x90, 0xc2, 0xc2, 0xa2, 0x9c, 0x67, 0xf2, 0xa3, 0x80, 0x84, 0x89,
        0xc1, 0x97, 0x83, 0x90, 0x93, 0x8b, 0x84, 0x87, 0x88, 0x8d, 0xa9, 0x74, 0x7d, 0x82, 0xb2,
        0xb6, 0xa6, 0x97, 0xae, 0x81, 0x91, 0x98, 0x90, 0x86, 0x8a, 0x7f, 0x88, 0x8b, 0x78, 0x80,
        0x80, 0x7b, 0x83, 0x90, 0x80, 0x9a, 0x9c, 0x8c, 0x86, 0x78, 0x8b, 0x86, 0x82, 0x8c, 0x90,
        0x87, 0x8a, 0xfe, 0xff, 0xff, 0x00, 0x00, 0x00, 0x02, 0x10, 0x00, 0x00, 0x00, 0x03, 0x00,
        0x00, 0x00, 0x10, 0x00, 0x00, 0x00, 0x20, 0x00, 0x00, 0x00, 0x01, 0x00, 0x00, 0x00, 0x04,
        0x00, 0x00, 0x00, 0x0d, 0x00, 0x00, 0x00, 0x43, 0x6f, 0x6e, 0x76, 0x32, 0x44, 0x5f, 0x36,
        0x5f, 0x62, 0x69, 0x61, 0x73, 0x00, 0x00, 0x00, 0x7c, 0xfe, 0xff, 0xff, 0x14, 0x00, 0x00,
        0x00, 0x04, 0x00, 0x00, 0x00, 0x01, 0x00, 0x00, 0x00, 0x00, 0x00, 0x00, 0x00, 0x00, 0x00,
        0x00, 0x00, 0x01, 0x00, 0x00, 0x00, 0xff, 0xda, 0x0a, 0x39, 0x10, 0x00, 0x00, 0x00, 0xbb,
        0x04, 0x00, 0x00, 0xe1, 0xff, 0xff, 0xff, 0xb0, 0xec, 0xff, 0xff, 0x8d, 0xdb, 0xff, 0xff,
        0xf2, 0xfe, 0xff, 0xff, 0x00, 0x00, 0x00, 0x03, 0x10, 0x00, 0x00, 0x00, 0x02, 0x00, 0x00,
        0x00, 0x1c, 0x00, 0x00, 0x00, 0x50, 0x00, 0x00, 0x00, 0x04, 0x00, 0x00, 0x00, 0x03, 0x00,
        0x00, 0x00, 0x03, 0x00, 0x00, 0x00, 0x03, 0x00, 0x00, 0x00, 0x04, 0x00, 0x00, 0x00, 0x26,
        0x00, 0x00, 0x00, 0x77, 0x65, 0x69, 0x67, 0x68, 0x74, 0x5f, 0x71, 0x75, 0x61, 0x6e, 0x74,
        0x5f, 0x37, 0x2f, 0x46, 0x61, 0x6b, 0x65, 0x51, 0x75, 0x61, 0x6e, 0x74, 0x57, 0x69, 0x74,
        0x68, 0x4d, 0x69, 0x6e, 0x4d, 0x61, 0x78, 0x56, 0x61, 0x72, 0x73, 0x00, 0x00, 0x0c, 0x00,
        0x14, 0x00, 0x04, 0x00, 0x08, 0x00, 0x0c, 0x00, 0x10, 0x00, 0x0c, 0x00, 0x00, 0x00, 0x2c,
        0x00, 0x00, 0x00, 0x20, 0x00, 0x00, 0x00, 0x14, 0x00, 0x00, 0x00, 0x04, 0x00, 0x00, 0x00,
        0x01, 0x00, 0x00, 0x00, 0x64, 0x00, 0x00, 0x00, 0x00, 0x00, 0x00, 0x00, 0x01, 0x00, 0x00,
        0x00, 0xfe, 0xbe, 0xb1, 0x39, 0x01, 0x00, 0x00, 0x00, 0x48, 0x3d, 0x57, 0x3d, 0x01, 0x00,
        0x00, 0x00, 0x36, 0xdd, 0x0a, 0xbd, 0x6c, 0x00, 0x00, 0x00, 0x38, 0xa8, 0x65, 0xa0, 0x1c,
        0x9b, 0x71, 0x93, 0x30, 0x44, 0x39, 0x56, 0x13, 0x9f, 0xa6, 0xa3, 0x87, 0x6e, 0xfe, 0x2a,
        0x2c, 0x45, 0x86, 0x9b, 0x20, 0x48, 0x28, 0x38, 0x26, 0x4d, 0xb4, 0x9b, 0x4a, 0x00, 0x5d,
        0xb2, 0x49, 0x97, 0x71, 0xa9, 0x85, 0x7d, 0x5d, 0x87, 0x3e, 0x6b, 0x71, 0x62, 0x5c, 0x87,
        0x98, 0x6f, 0xfd, 0x90, 0xbd, 0x67, 0xa4, 0x3c, 0x78, 0x89, 0x4a, 0x69, 0x32, 0x88, 0x7a,
        0x2d, 0xb2, 0x80, 0x66, 0x2e, 0x86, 0xcb, 0x2e, 0x9b, 0x58, 0x8d, 0x94, 0x8e, 0x35, 0xba,
        0x06, 0x52, 0x4c, 0x35, 0x63, 0x95, 0x3f, 0xbd, 0xff, 0x7e, 0x47, 0x7b, 0xa0, 0x3f, 0x3d,
        0xc2, 0x51, 0x53, 0x16, 0x43, 0x75, 0x3e, 0x42, 0xbc, 0x4a, 0x29, 0x6a, 0x8f, 0x00, 0x00,
        0x0e, 0x00, 0x18, 0x00, 0x08, 0x00, 0x07, 0x00, 0x0c, 0x00, 0x10, 0x00, 0x14, 0x00, 0x0e,
        0x00, 0x00, 0x00, 0x00, 0x00, 0x00, 0x02, 0x10, 0x00, 0x00, 0x00, 0x01, 0x00, 0x00, 0x00,
        0x10, 0x00, 0x00, 0x00, 0x2c, 0x00, 0x00, 0x00, 0x01, 0x00, 0x00, 0x00, 0x03, 0x00, 0x00,
        0x00, 0x0d, 0x00, 0x00, 0x00, 0x43, 0x6f, 0x6e, 0x76, 0x32, 0x44, 0x5f, 0x37, 0x5f, 0x62,
        0x69, 0x61, 0x73, 0x00, 0x00, 0x00, 0x0c, 0x00, 0x0c, 0x00, 0x00, 0x00, 0x00, 0x00, 0x04,
        0x00, 0x08, 0x00, 0x0c, 0x00, 0x00, 0x00, 0x18, 0x00, 0x00, 0x00, 0x04, 0x00, 0x00, 0x00,
        0x01, 0x00, 0x00, 0x00, 0x00, 0x00, 0x00, 0x00, 0x00, 0x00, 0x00, 0x00, 0x00, 0x00, 0x00,
        0x00, 0x01, 0x00, 0x00, 0x00, 0x69, 0x60, 0x98, 0x37, 0x0c, 0x00, 0x00, 0x00, 0x2c, 0x28,
        0x00, 0x00, 0x15, 0x01, 0x00, 0x00, 0x4d, 0x12, 0x00, 0x00, 0x0e, 0x00, 0x00, 0x00, 0x98,
        0x03, 0x00, 0x00, 0x30, 0x03, 0x00, 0x00, 0xe8, 0x02, 0x00, 0x00, 0xa0, 0x02, 0x00, 0x00,
        0x68, 0x02, 0x00, 0x00, 0x0c, 0x02, 0x00, 0x00, 0xd4, 0x01, 0x00, 0x00, 0x8c, 0x01, 0x00,
        0x00, 0x54, 0x01, 0x00, 0x00, 0x0c, 0x01, 0x00, 0x00, 0xd4, 0x00, 0x00, 0x00, 0x8c, 0x00,
        0x00, 0x00, 0x4c, 0x00, 0x00, 0x00, 0x04, 0x00, 0x00, 0x00, 0xb4, 0xfc, 0xff, 0xff, 0x00,
        0x00, 0x00, 0x01, 0x01, 0x00, 0x00, 0x00, 0x10, 0x00, 0x00, 0x00, 0x1c, 0x00, 0x00, 0x00,
        0x24, 0x00, 0x00, 0x00, 0x1c, 0x00, 0x00, 0x00, 0x03, 0x00, 0x00, 0x00, 0x15, 0x00, 0x00,
        0x00, 0x22, 0x00, 0x00, 0x00, 0x09, 0x00, 0x00, 0x00, 0x01, 0x00, 0x00, 0x00, 0x0f, 0x00,
        0x00, 0x00, 0x00, 0x00, 0x00, 0x00, 0x02, 0xfd, 0xff, 0xff, 0x01, 0x00, 0x00, 0x00, 0x01,
        0x00, 0x00, 0x00, 0xf8, 0xfc, 0xff, 0xff, 0x00, 0x00, 0x00, 0x4a, 0x03, 0x00, 0x00, 0x00,
        0x10, 0x00, 0x00, 0x00, 0x18, 0x00, 0x00, 0x00, 0x20, 0x00, 0x00, 0x00, 0x18, 0x00, 0x00,
        0x00, 0x02, 0x00, 0x00, 0x00, 0x12, 0x00, 0x00, 0x00, 0x16, 0x00, 0x00, 0x00, 0x01, 0x00,
        0x00, 0x00, 0x15, 0x00, 0x00, 0x00, 0x00, 0x00, 0x00, 0x00, 0x56, 0xfc, 0xff, 0xff, 0x00,
        0x00, 0x00, 0x01, 0x34, 0xfd, 0xff, 0xff, 0x00, 0x00, 0x00, 0x01, 0x01, 0x00, 0x00, 0x00,
        0x10, 0x00, 0x00, 0x00, 0x1c, 0x00, 0x00, 0x00, 0x24, 0x00, 0x00, 0x00, 0x1c, 0x00, 0x00,
        0x00, 0x03, 0x00, 0x00, 0x00, 0x0e, 0x00, 0x00, 0x00, 0x21, 0x00, 0x00, 0x00, 0x08, 0x00,
        0x00, 0x00, 0x01, 0x00, 0x00, 0x00, 0x12, 0x00, 0x00, 0x00, 0x00, 0x00, 0x00, 0x00, 0x82,
        0xfd, 0xff, 0xff, 0x01, 0x00, 0x00, 0x00, 0x01, 0x00, 0x00, 0x00, 0x98, 0xfe, 0xff, 0xff,
        0x00, 0x00, 0x00, 0x0b, 0x10, 0x00, 0x00, 0x00, 0x18, 0x00, 0x00, 0x00, 0x20, 0x00, 0x00,
        0x00, 0x18, 0x00, 0x00, 0x00, 0x02, 0x00, 0x00, 0x00, 0x13, 0x00, 0x00, 0x00, 0x10, 0x00,
        0x00, 0x00, 0x01, 0x00, 0x00, 0x00, 0x0e, 0x00, 0x00, 0x00, 0x00, 0x00, 0x00, 0x00, 0xf4,
        0xfc, 0xff, 0xff, 0xac, 0xfd, 0xff, 0xff, 0x00, 0x00, 0x00, 0x01, 0x01, 0x00, 0x00, 0x00,
        0x10, 0x00, 0x00, 0x00, 0x1c, 0x00, 0x00, 0x00, 0x24, 0x00, 0x00, 0x00, 0x1c, 0x00, 0x00,
        0x00, 0x03, 0x00, 0x00, 0x00, 0x02, 0x00, 0x00, 0x00, 0x1b, 0x00, 0x00, 0x00, 0x07, 0x00,
        0x00, 0x00, 0x01, 0x00, 0x00, 0x00, 0x13, 0x00, 0x00, 0x00, 0x00, 0x00, 0x00, 0x00, 0xfa,
        0xfd, 0xff, 0xff, 0x01, 0x00, 0x00, 0x00, 0x01, 0x00, 0x00, 0x00, 0x10, 0xff, 0xff, 0xff,
        0x00, 0x00, 0x00, 0x0b, 0x10, 0x00, 0x00, 0x00, 0x18, 0x00, 0x00, 0x00, 0x20, 0x00, 0x00,
        0x00, 0x18, 0x00, 0x00, 0x00, 0x02, 0x00, 0x00, 0x00, 0x0d, 0x00, 0x00, 0x00, 0x01, 0x00,
        0x00, 0x00, 0x01, 0x00, 0x00, 0x00, 0x02, 0x00, 0x00, 0x00, 0x00, 0x00, 0x00, 0x00, 0x6c,
        0xfd, 0xff, 0xff, 0x24, 0xfe, 0xff, 0xff, 0x00, 0x00, 0x00, 0x01, 0x01, 0x00, 0x00, 0x00,
        0x10, 0x00, 0x00, 0x00, 0x1c, 0x00, 0x00, 0x00, 0x24, 0x00, 0x00, 0x00, 0x1c, 0x00, 0x00,
        0x00, 0x03, 0x00, 0x00, 0x00, 0x01, 0x00, 0x00, 0x00, 0x1e, 0x00, 0x00, 0x00, 0x06, 0x00,
        0x00, 0x00, 0x01, 0x00, 0x00, 0x00, 0x0d, 0x00, 0x00, 0x00, 0x00, 0x00, 0x00, 0x00, 0x72,
        0xfe, 0xff, 0xff, 0x01, 0x00, 0x00, 0x00, 0x01, 0x00, 0x00, 0x00, 0x88, 0xff, 0xff, 0xff,
        0x00, 0x00, 0x00, 0x0b, 0x10, 0x00, 0x00, 0x00, 0x18, 0x00, 0x00, 0x00, 0x20, 0x00, 0x00,
        0x00, 0x18, 0x00, 0x00, 0x00, 0x02, 0x00, 0x00, 0x00, 0x0c, 0x00, 0x00, 0x00, 0x00, 0x00,
        0x00, 0x00, 0x01, 0x00, 0x00, 0x00, 0x01, 0x00, 0x00, 0x00, 0x00, 0x00, 0x00, 0x00, 0xe4,
        0xfd, 0xff, 0xff, 0x9c, 0xfe, 0xff, 0xff, 0x00, 0x00, 0x00, 0x01, 0x01, 0x00, 0x00, 0x00,
        0x10, 0x00, 0x00, 0x00, 0x1c, 0x00, 0x00, 0x00, 0x24, 0x00, 0x00, 0x00, 0x1c, 0x00, 0x00,
        0x00, 0x03, 0x00, 0x00, 0x00, 0x00, 0x00, 0x00, 0x00, 0x1d, 0x00, 0x00, 0x00, 0x05, 0x00,
        0x00, 0x00, 0x01, 0x00, 0x00, 0x00, 0x0c, 0x00, 0x00, 0x00, 0x00, 0x00, 0x00, 0x00, 0xea,
        0xfe, 0xff, 0xff, 0x01, 0x00, 0x00, 0x00, 0x01, 0x00, 0x00, 0x00, 0x14, 0x00, 0x18, 0x00,
        0x00, 0x00, 0x08, 0x00, 0x0c, 0x00, 0x07, 0x00, 0x10, 0x00, 0x00, 0x00, 0x00, 0x00, 0x14,
        0x00, 0x14, 0x00, 0x00, 0x00, 0x00, 0x00, 0x00, 0x0b, 0x10, 0x00, 0x00, 0x00, 0x18, 0x00,
        0x00, 0x00, 0x20, 0x00, 0x00, 0x00, 0x18, 0x00, 0x00, 0x00, 0x02, 0x00, 0x00, 0x00, 0x0b,
        0x00, 0x00, 0x00, 0x11, 0x00, 0x00, 0x00, 0x01, 0x00, 0x00, 0x00, 0x00, 0x00, 0x00, 0x00,
        0x00, 0x00, 0x00, 0x00, 0x70, 0xfe, 0xff, 0xff, 0x28, 0xff, 0xff, 0xff, 0x00, 0x00, 0x00,
        0x01, 0x01, 0x00, 0x00, 0x00, 0x10, 0x00, 0x00, 0x00, 0x1c, 0x00, 0x00, 0x00, 0x24, 0x00,
        0x00, 0x00, 0x1c, 0x00, 0x00, 0x00, 0x03, 0x00, 0x00, 0x00, 0x11, 0x00, 0x00, 0x00, 0x1c,
        0x00, 0x00, 0x00, 0x04, 0x00, 0x00, 0x00, 0x01, 0x00, 0x00, 0x00, 0x0b, 0x00, 0x00, 0x00,
        0x00, 0x00, 0x00, 0x00, 0x76, 0xff, 0xff, 0xff, 0x01, 0x00, 0x00, 0x00, 0x01, 0x00, 0x00,
        0x00, 0x6c, 0xff, 0xff, 0xff, 0x00, 0x00, 0x00, 0x01, 0x01, 0x00, 0x00, 0x00, 0x10, 0x00,
        0x00, 0x00, 0x1c, 0x00, 0x00, 0x00, 0x24, 0x00, 0x00, 0x00, 0x1c, 0x00, 0x00, 0x00, 0x03,
        0x00, 0x00, 0x00, 0x10, 0x00, 0x00, 0x00, 0x20, 0x00, 0x00, 0x00, 0x03, 0x00, 0x00, 0x00,
        0x01, 0x00, 0x00, 0x00, 0x11, 0x00, 0x00, 0x00, 0x00, 0x00, 0x00, 0x00, 0xba, 0xff, 0xff,
        0xff, 0x01, 0x00, 0x00, 0x00, 0x01, 0x00, 0x00, 0x00, 0xb0, 0xff, 0xff, 0xff, 0x00, 0x00,
        0x00, 0x01, 0x01, 0x00, 0x00, 0x00, 0x10, 0x00, 0x00, 0x00, 0x1c, 0x00, 0x00, 0x00, 0x30,
        0x00, 0x00, 0x00, 0x1c, 0x00, 0x00, 0x00, 0x03, 0x00, 0x00, 0x00, 0x17, 0x00, 0x00, 0x00,
        0x1f, 0x00, 0x00, 0x00, 0x0a, 0x00, 0x00, 0x00, 0x01, 0x00, 0x00, 0x00, 0x10, 0x00, 0x00,
        0x00, 0x00, 0x00, 0x00, 0x00, 0x00, 0x00, 0x0a, 0x00, 0x0c, 0x00, 0x00, 0x00, 0x04, 0x00,
        0x08, 0x00, 0x0a, 0x00, 0x00, 0x00, 0x01, 0x00, 0x00, 0x00, 0x01, 0x00, 0x00, 0x00, 0x14,
        0x00, 0x1c, 0x00, 0x08, 0x00, 0x0c, 0x00, 0x10, 0x00, 0x07, 0x00, 0x14, 0x00, 0x00, 0x00,
        0x00, 0x00, 0x18, 0x00, 0x14, 0x00, 0x00, 0x00, 0x00, 0x00, 0x00, 0x20, 0x02, 0x00, 0x00,
        0x00, 0x10, 0x00, 0x00, 0x00, 0x20, 0x00, 0x00, 0x00, 0x30, 0x00, 0x00, 0x00, 0x20, 0x00,
        0x00, 0x00, 0x04, 0x00, 0x00, 0x00, 0x14, 0x00, 0x00, 0x00, 0x18, 0x00, 0x00, 0x00, 0x19,
        0x00, 0x00, 0x00, 0x1a, 0x00, 0x00, 0x00, 0x01, 0x00, 0x00, 0x00, 0x17, 0x00, 0x00, 0x00,
        0x00, 0x00, 0x00, 0x00, 0x08, 0x00, 0x0c, 0x00, 0x04, 0x00, 0x08, 0x00, 0x08, 0x00, 0x00,
        0x00, 0x07, 0x00, 0x00, 0x00, 0x07, 0x00, 0x00, 0x00, 0x04, 0x00, 0x00, 0x00, 0x28, 0x00,
        0x00, 0x00, 0x0c, 0x00, 0x00, 0x00, 0x6c, 0x00, 0x00, 0x00, 0x0c, 0x00, 0x00, 0x00, 0xa2,
        0xff, 0xff, 0xff, 0x00, 0x00, 0x00, 0x03, 0xaa, 0xff, 0xff, 0xff, 0x00, 0x00, 0x00, 0x61,
        0xb2, 0xff, 0xff, 0xff, 0x00, 0x00, 0x00, 0x03, 0xdc, 0xff, 0xff, 0xff, 0xbe, 0xff, 0xff,
        0xff, 0x00, 0x00, 0x00, 0x03, 0xe8, 0xff, 0xff, 0xff, 0xca, 0xff, 0xff, 0xff, 0x00, 0x00,
        0x00, 0x03, 0xf4, 0xff, 0xff, 0xff, 0xd6, 0xff, 0xff, 0xff, 0x00, 0x00, 0x00, 0x03, 0x04,
        0x00, 0x04, 0x00, 0x04, 0x00, 0x00, 0x00, 0xe6, 0xff, 0xff, 0xff, 0x00, 0x00, 0x00, 0x03,
        0xfa, 0xff, 0xff, 0xff, 0x00, 0x03, 0x06, 0x00, 0x06, 0x00, 0x05, 0x00, 0x06, 0x00, 0x00,
        0x00, 0x00, 0x03, 0x06, 0x00, 0x08, 0x00, 0x07, 0x00, 0x06, 0x00, 0x00, 0x00, 0x00, 0x00,
        0x00, 0x2d};
static constexpr int kSraa4chPortraitModelSize = 8792;
